/**
  ******************************************************************************
  * @file    strokes_data_params.c
  * @author  AST Embedded Analytics Research Platform
  * @date    Wed Apr 22 07:02:09 2026
  * @brief   AI Tool Automatic Code Generator for Embedded NN computing
  ******************************************************************************
  * Copyright (c) 2026 STMicroelectronics.
  * All rights reserved.
  *
  * This software is licensed under terms that can be found in the LICENSE file
  * in the root directory of this software component.
  * If no LICENSE file comes with this software, it is provided AS-IS.
  ******************************************************************************
  */

#include "strokes_data_params.h"


/**  Activations Section  ****************************************************/
ai_handle g_strokes_activations_table[1 + 2] = {
  AI_HANDLE_PTR(AI_MAGIC_MARKER),
  AI_HANDLE_PTR(NULL),
  AI_HANDLE_PTR(AI_MAGIC_MARKER),
};




/**  Weights Section  ********************************************************/
AI_ALIGNED(32)
const ai_u64 s_strokes_weights_array_u64[610] __attribute__((section(".strokes_utezi"), aligned(32))) = {
  0xbe19408cbcac2050U, 0xbd401fe8be41a49eU, 0x3e504b85be10ca27U, 0x3e51e83abf2d9918U,
  0x3cac6482bef34d1eU, 0xbf13441ebf6056e2U, 0xbe8d3a473f177666U, 0x3df9ce1b3e8bee64U,
  0x3e87f9f8be79e356U, 0xbeac34123e9bd042U, 0xbee98afdbe47f7d6U, 0x3ee2ef39bed03480U,
  0xbb32da273e5abd02U, 0xbeff4e51bf1bcbd1U, 0x3e81ad8f3f1669e4U, 0xbeee517cbbf573e7U,
  0x3eefd419be60f78fU, 0xbef3c8ddbcf2ec05U, 0xbf0daf273ecccf9cU, 0xbef078853e9117f4U,
  0xbf2537b7bb0ef361U, 0x3f1e8225bf17849bU, 0x3ec43fca3ea6147bU, 0x3eca03243f0a94d0U,
  0x3ec94ac63ea562cfU, 0x3ee146303ebd239aU, 0x3ed28b8d3e8be391U, 0x3ee20c863e16a110U,
  0x3e68c4ef3f358c5fU, 0x3ecac81d3edcb467U, 0x3e97584bbead5a05U, 0xbf27e218bef4f1d0U,
  0x3f1506f63e65a2e4U, 0x3e17699e3f2d93ffU, 0x3f1483373ebecc27U, 0xbe65593abe1f79e8U,
  0xbdd30c90bd8efff6U, 0x3ec8fe59bd30bdbcU, 0x3ed09a1e3f018200U, 0x3e1907063f0ba4e1U,
  0x3e94708c00000000U, 0xbc2ef8f7bdf2ab4aU, 0xbcab2c1cbd14280eU, 0x3e9acf94bcf8a1b0U,
  0xbaaf1a22bcbd10a6U, 0x3e26bb3abae3c422U, 0x3e61f03a3e7ed175U, 0xbb3d25d100000000U,
  0xbe67b8b1be39a1e0U, 0x3e39d910bd511cdeU, 0x3efa3ff23ebe6d56U, 0x3c4d1a783e92b2bdU,
  0x3dfe384a3f16766cU, 0x3d8d88ad3e11064cU, 0x3dc8d830bee7950eU, 0x3e8043e23de01920U,
  0xbc4f7d09bd9cf6c8U, 0x3e619f56be9e8207U, 0x3eec48343f100391U, 0x3debf3de3eed08acU,
  0x3ea506643e807e05U, 0x3ec1d48f3e6c1530U, 0x3e804bb8beb105dcU, 0x3e438fdfbdd038d8U,
  0x3d54251e3dafedc8U, 0xbc9fed023ed580fcU, 0x3d3f9d923e12d3c5U, 0x3db64417be0f828cU,
  0x3ecf47f03dbd197eU, 0x3edd03ff3e3fc619U, 0x3eb26339bef39742U, 0x3e69e1cd3e07a034U,
  0xbe3eb2e0be772984U, 0x3e7a19843f2af775U, 0x3f6678a63f83ffe4U, 0xbf04b0c53f4f6247U,
  0x3eb7646a3f64dd14U, 0x3e42b1243e98e2c9U, 0x3eebf471bf0ee649U, 0x3e7f2172be0f24ccU,
  0xbf1398b93c8965e0U, 0x3ed5c95b3f2be7b2U, 0x3f8402cb3f73a449U, 0xbef56aec3f1b2fb0U,
  0x3ea781113f2bf9e5U, 0x3eca72223dd98b18U, 0x3eb0a84fbf38353dU, 0x3f05aef13db52d48U,
  0xbecf65bb3e10b208U, 0xbe36ff3b3f08b49cU, 0xbe23576c3d82aad7U, 0xbe50c527be5f3aedU,
  0x3ea66a643de95acdU, 0x3eef14473f01ea47U, 0x3ddc0486bf2e1247U, 0x3dc9ca973d877a30U,
  0xbe9c8ef03e068ad0U, 0x3ee75b6a3e4d2c93U, 0x3f4d75a63f84b1a7U, 0xbde74d263f817dd4U,
  0x3ebb13663f835421U, 0x3d4864823e57617cU, 0xbd8a822bbee403dfU, 0x3eaa55a13e47125cU,
  0xbe4227653e01cfd8U, 0x3ef6cba63ea3410fU, 0x3f7f60c13f56f020U, 0xbe0fac493f7b7130U,
  0x3d85cf763f875fcfU, 0x3ea71a0d3ed3652bU, 0xbc5cedab3ee0d5eeU, 0x3e574e1dbe41c0d8U,
  0xbe716c193e10e8dcU, 0x3e9df5143ea00861U, 0x3f617bb23edb8619U, 0xbe9fa4fc3f2bff2bU,
  0xbd1201fa3f3a5821U, 0x3e3f94773e6ac62cU, 0x3ed65ef63e928f26U, 0x3e5f6104be6a4b28U,
  0xbde6bbe9be661340U, 0x3cd63d003d2091e0U, 0x3e72689a3e5f2280U, 0x3c8b19e1be2c74a8U,
  0xbddcf698bda6ed78U, 0xbcc3f8113c4f1800U, 0x3c1fa740be28566cU, 0xbda0694cbe56cb70U,
  0xbd5167063d3e81f0U, 0x3e08c7a3be7a561aU, 0x3e53a09e3df09a18U, 0xbd4c4c2b3e77a3cbU,
  0x3d8eadf4bda6a2a0U, 0xbe30f2cabe4caddfU, 0x3e4b9f4dbc63a240U, 0xbdefe0353e7d526cU,
  0xbe666712bd9532e0U, 0xbe47f7413e5c05ecU, 0xbdf85b55bdb1a240U, 0x3d3388db3de07828U,
  0x3d78bc4cbe3938e8U, 0xbe315c5cbe4582b1U, 0x3da7243a3d711c70U, 0xbe36f4ba3e19189cU,
  0xbe3564c83c621ac0U, 0x3cb023203e6d27bcU, 0xbdaf4f60be67fb58U, 0x3deaa5c0bd7fef90U,
  0xbe2e3984bdd80430U, 0xbe526f04bd818070U, 0x3c8133a03e4acadcU, 0xbe5691783e7a8060U,
  0xbde6a840be63b9acU, 0x3e4465143e55615cU, 0xbd55be80be27c9dcU, 0xbd71db003e5dbac0U,
  0xbdcedbc0bdcbf2f8U, 0xbe7e7e1cbe45d950U, 0xbe659b10be5e1588U, 0x3e5440cc3e54fbccU,
  0x3d37e6c0bca52200U, 0xbe1d3af83e634588U, 0xbdea95f8be67f330U, 0xbe0f93943e1e813cU,
  0xbe17dc50bcd51fa0U, 0xbe393adcbe682490U, 0x3e12f1b03e724734U, 0x3e3c4028bda01d48U,
  0x3d508c9c3e7a7bfcU, 0xbdd91852bdb6d5a8U, 0x3e631d583dfd2b48U, 0xbe745968bdca8b8eU,
  0x3e06e436bd53ba50U, 0xbe02be073dedcb53U, 0xbe4ddda83d2a61edU, 0x3dcf62e9be414cb8U,
  0xbe7668063e2dffd0U, 0xbd375de7be4d712cU, 0xbe81c904be29825fU, 0xbe3ecf26be5711a6U,
  0xbd9a4a6fbe0fdf58U, 0x3e2c064dbd8e68d9U, 0xbdaa8a893e4ef4e8U, 0xbe2b368e3ddabb18U,
  0xbd92b52d3e707388U, 0xbe42cc583de625f8U, 0x3d8bc299be163c7bU, 0x3e18b0853c32a759U,
  0xbd0d8898be124dacU, 0xbe3321093b92ac3eU, 0x3d9722913e1bffcfU, 0xbddb3a8e3e2f4314U,
  0x3e6d2cbe3dc887f0U, 0x3f1bd570bf785953U, 0xbe2badafbda2dd50U, 0x3d84e1ddbe4e9cedU,
  0x3d39d789bd7eef07U, 0xbdc08fa9be700c43U, 0xbce39b26bd9decf9U, 0x3e75f0663dc5e838U,
  0x3d2962bfbe3fb390U, 0x3edd8ef5bf67f047U, 0x3d9c3b97be95da85U, 0x3ebf92703d7e06cdU,
  0xbe2eef29be1dbc62U, 0x3e2276dabe0348b2U, 0xbd07fd8d3f1e16cdU, 0x3de60a5039858800U,
  0xbdecee39bca10080U, 0x3f60ad84be67b42fU, 0x3f54db283e7455ccU, 0x3e8a6c8f3e55b9a6U,
  0x3e8c87e53eeeee89U, 0xbe2d98f73c995e76U, 0x3ce54d753da15b7dU, 0xbd5965f33d913280U,
  0xbef4261e3e195b8cU, 0x3ef44b42be2197a8U, 0x3f0f954e3f701297U, 0xbddec1f23f49ed1fU,
  0x3ea8aa3d3f80f0beU, 0x3f03b97c3ea6201cU, 0x3e6c7e03bc845cd3U, 0x3f13e9b63e0081b8U,
  0xbe73bcd0be27a3e8U, 0x3ea45dd33ea0e50aU, 0x3f7003d63f20c7baU, 0xbe8fbe513f1b79d2U,
  0x3e9b09753f3a57f3U, 0x3f1494973e5f4c40U, 0x3eeeb50f3dc1eeb1U, 0x3ed3aeadbce5ac80U,
  0xbe9e4667be73e54cU, 0x3da6da463ea9d5e7U, 0x3f1187aa3e6610f6U, 0xbe3395fe3e265221U,
  0x3e6112803ef44b1dU, 0x3f02c23f3f28a28bU, 0x3ed9226cbcb55e9aU, 0x3e0e4f3d3ddecb28U,
  0xbe775d26be24642cU, 0xbe539149bd7f1247U, 0xbe1964763c3d6bebU, 0x3e07ae103e4b5660U,
  0x3e195c77bcc31b94U, 0xbc8b8d563c17bd52U, 0xbe0470953bc5bec8U, 0xbd92db3c3e544118U,
  0xbe772a3dbd9fd540U, 0x3e12dc583e51d550U, 0xbdab8e08be3983b9U, 0xbe71e79a3e0798edU,
  0x3d28645a3e396021U, 0xbe3c897abe5995c5U, 0x3dcfcbd9bdd52c65U, 0xbc9fff25be5645c0U,
  0xbe37d534bb1ba600U, 0x3db216f93e6b9d06U, 0x3d768904bbad51deU, 0xbe18a12f3e2f81b8U,
  0x3e35d3c4bde15a7dU, 0x3d9a9d3c3d2177a2U, 0x3dbce650be2631c1U, 0xbe4c5ece3e79d5c4U,
  0x3f0e95283b0c4c00U, 0xbe937c1fbf8c6d75U, 0xbefa75f8bf326817U, 0x3f24b22fbeb8b789U,
  0xbda3654ebf243058U, 0xbd57b1443d14e2f6U, 0xbd06d2f33f2312bfU, 0xbe2268e5bdf0f3b8U,
  0x3eec500f3e74c5bcU, 0x3db04460bf138bc5U, 0xbf5f63afbf075c2dU, 0x3ea20bebbef01e55U,
  0xbde3e2f4bf361733U, 0x3e37ab47bdd3533bU, 0x3d598a033f26789eU, 0x3c9b0cafbdd552f0U,
  0x3efeb63cbe19bb9cU, 0x3ed72b97beac67a2U, 0xbdbb6359bceadedaU, 0x3f1638443e038b3cU,
  0xbd87c4ec3e8c50b0U, 0x3e4a2811bdda29d9U, 0xbd8a90f33f351088U, 0xbde26210bd612750U,
  0x3f1b81d43cc28de0U, 0xbef142d0bf3173daU, 0xbf3bc236bf83e7d6U, 0x3f148c33bef98f90U,
  0xbaaf9904bf5e1a99U, 0x3ce10cbebda56eb4U, 0x3e3ae2223f000c58U, 0xbe9ef208bd579cd0U,
  0x3f1690123e2eb4fcU, 0xbdd53685be34b0a5U, 0xbf3cb7a8bf1e88a9U, 0x3ec6d0dabf1405c7U,
  0xbdbc1ef7bf16b115U, 0x3df5ad503e1bfb2bU, 0x3e876b673f31c2b1U, 0xbcdb07143d175100U,
  0x3e70a2e63e11b024U, 0x3d705726be53a9f0U, 0xbe854f90be9c6f67U, 0x3ed077b5bdaace7aU,
  0x3d5cf1c6bed89d98U, 0xbe1075f0be12d949U, 0xbe260c533f0a3194U, 0xbe28558a3def8590U,
  0x3ea871b73decf788U, 0xbebceb973f2c474bU, 0xbebcf070bf499638U, 0x3f01a2e2be77a7eaU,
  0xbe0ac66dbe98583eU, 0x3de4763bbf06597bU, 0xbe37e0643f1922c9U, 0xbeb9b47d3df50b58U,
  0x3ebcdb04be6cca9cU, 0xbf1f7c473ec374b2U, 0xbf16f62bbf2cfc75U, 0x3e8a15a3bed9cf7fU,
  0xbea48ba6bedd4b77U, 0x3e3a7239bed826feU, 0x3eaeedff3eb14797U, 0xbe4daa79be58a980U,
  0x3e87781ebe7395ecU, 0xbed0d8f8be058624U, 0x3cee3da9bee16466U, 0x3eb9a8cfbe7b36c3U,
  0xbe5db408bedaddeaU, 0x3e841f2abec1ce2cU, 0x3e5f0a623f203879U, 0xbee845d0bde17cc8U,
  0xbe243a103ca1b320U, 0xbe4525cc3d817390U, 0x3df8ffe8be7f7ae0U, 0x3d329c503d4de350U,
  0xbda64b783e7a4928U, 0xbe6fee94bdc77670U, 0xbe0f15dc3d32cac0U, 0xbe7665503e0b65acU,
  0x3cb499e0bbefc980U, 0xbd9fcb78be3cb434U, 0xbd6c3490be59dce0U, 0x3db49878be707c4cU,
  0xbde98e583cbd1e20U, 0xbd57e9e0be2346a0U, 0xbe305c683d2f0110U, 0x3da95758bcf31180U,
  0xbd2c8f10bdbae800U, 0xbe670268be4b6224U, 0xbd20da50bdeb8a18U, 0xbe01987cbcd55f80U,
  0xbe6d5a683e64d0a4U, 0xbe59ffb0bd9d2d98U, 0x3e3fbf40be7a8684U, 0x3d0341e0bddd8940U,
  0x3d9d4a383d1967c0U, 0x3cbd9096be626593U, 0x3d32c7493de53652U, 0xbdeefc4e3e572478U,
  0x3e0d73933dfd1db3U, 0xbe80f396bddf3cebU, 0xbdd249873e708108U, 0xbd73a17fbe7bba50U,
  0xbe82d131bdc14ea0U, 0x3d91713f3e2f000bU, 0x3e4da5113d0ffdfdU, 0xbd20c083be265d1cU,
  0xbd6e9f5fbe2075d6U, 0xbc865d9d3da86792U, 0xbd49a7ba3e062c25U, 0xbe4c24103e1119c8U,
  0xbddf9262bdea2310U, 0x3e0798bbbe254718U, 0xbe28ba9ebd0cfae5U, 0xbddf3fcb3d941c60U,
  0x3dd284883e3c9f3cU, 0xbe4b6170bdaa958eU, 0x3d973c1b3d969470U, 0x3e716271be0ddfccU,
  0x3d52dce03d0abd70U, 0xbea0d65f3ef2426cU, 0xbf2e5bb8bf29bf04U, 0x3e45a853bf1b028bU,
  0x3cbe1f6dbf41eff1U, 0xbd827ae7be88abf0U, 0x3ca73a213ecd5610U, 0xbe443349be198364U,
  0x3ec3d204be074484U, 0xbed1e9f63ce79e97U, 0xbf2e9e04bf12cb2cU, 0x3ee6322ebf2dde52U,
  0x3e4e88bcbf3dd5bbU, 0x3e1079a93e77c4a7U, 0x3e5b96af3e3d45eaU, 0xbe462e11be3d2d1cU,
  0x3e18af893e13d710U, 0xbe422d0abf506880U, 0xbf2e0e5cbee0a13bU, 0x3e6521d2bf1e4a73U,
  0xbd29234dbf0811fcU, 0xbdf110093e40fed2U, 0xbd6f2d9b3e99129fU, 0xbe5d67e3ba0ba000U,
  0x3e5e79e0be0fd1f0U, 0xbe961e503f3bbd1eU, 0xbf6a0c53bf4ae520U, 0x3ed96c05bf298511U,
  0x3df66ba6bf5838efU, 0xbdcf131bbe552978U, 0x3e18505f3bdd72c1U, 0x3de560b83e4c0b64U,
  0x3e49a42b3e66018cU, 0xbe932be03f8cb81dU, 0xbf532a71bf56d5d8U, 0x39578c30bf194fa4U,
  0x3e5ca9c0bf3de18cU, 0xbe1f4c443c2cfda5U, 0x3e504c5ebccb896cU, 0xbde4d88bbe05ca80U,
  0x3ebe4efb3e6a4704U, 0xbf2478e3bf0c36d7U, 0xbf5192b6bf308da1U, 0x3e88b4f0beb251f1U,
  0xbd167ddbbf4d88dfU, 0xbd4976e4be84f64dU, 0x3dbf702bbe6c7dc8U, 0xbe2c3c8abe6c0a58U,
  0x3e2000493b531050U, 0xbc5e28493df49d11U, 0xbb72f0c400000000U, 0xbd90c553bc284154U,
  0x3e371366bcb7ce04U, 0x3eb0cd243e34f514U, 0xbc40276700000000U, 0x3dcaad623dc4776dU,
  0x3e070ec9beffe1fcU, 0x3e9937dfbf0c3180U, 0x3ed5186dbcb62c90U, 0xbea30c2ebd19996cU,
  0x3e29b29bbe5a1b11U, 0x3f13a59f3f1b239dU, 0xbe3bc25cbea02f02U, 0x3e5f4ebe3edde3c4U,
  0xbe3e0bccbd3d4baeU, 0x3e38f44e3d214bbcU, 0xbed8cb28be6d1950U, 0xbe25c4a03e085a86U,
  0xbe9b24143ea75836U, 0x3e8916d13d9fa2eeU, 0x3eb7fbabbe899779U, 0x3db0ae783e8e4153U,
  0xbeb4b2f23c54526dU, 0xbe2b6d843ed89d65U, 0xbe28ca1ebec5bc1eU, 0x3ce5b71ebe6f4340U,
  0xbe375ab2bd710514U, 0xbebff6753ea80e7dU, 0x3e9c8279be5820afU, 0xbdb80ce03ec9d555U,
  0xbeec1d19bebc5f5cU, 0xbd2766103e883255U, 0x3e7fd43a3cf89660U, 0xbeaa71b33f2c516bU,
  0x3efcf5babe999289U, 0x3f2adbe03e9ce8a7U, 0x3e38cf3ebe153cfcU, 0xbec7ef1cbe35a760U,
  0x3eb14418beb8d9b4U, 0xbe25cb433e178fbeU, 0xbdd5c5ae3e85d5e3U, 0xbdbfb51dbea89edaU,
  0x3dba5aca3ed07041U, 0xbea1dbb6bdb01d8aU, 0x3e2f6afd3d969894U, 0x3e0d72193e7cf9edU,
  0xbf2c2cd93e67bae1U, 0x3d9e6931bf1b84ddU, 0xbe561f84bec75287U, 0xbed056823e4361d4U,
  0x3f4a79fc3ddf2a48U, 0x3f4128cc3f477608U, 0xbda9abbb3e76b076U, 0x3f1c07053e5fdf4bU,
  0xbecb7347be5b97a7U, 0x3da17645be98aa86U, 0xbe9684d8bde03164U, 0xbe37286f3f2c8a00U,
  0x3f20cdbb3ec9aa43U, 0x3e135c263f18eeedU, 0x3df4aeca3ed499b5U, 0x3f2c3d7c3ec4d31aU,
  0xbe64c257be3b5f08U, 0xbe88c12dbe30f34bU, 0x3ea994213ebf5951U, 0x3e2010ff3eda1453U,
  0x3f19f769bd44515bU, 0xbe90fa493ec09a70U, 0x3e1debf83de30924U, 0x3e1eb1f03eec13deU,
  0x3e235eb2be674951U, 0x3d444ab0be4061b3U, 0x3da50f44bd1048a0U, 0xbe0b92f6beb6ef76U,
  0x3e490d82bea8c087U, 0xbe063e9ebd96d5dcU, 0xbeb27fedbe8aa9c6U, 0xbd19c708be861c24U,
  0x3eee63563edde81bU, 0xbe26df423e4e3816U, 0x3e65c1a5bdec6f7cU, 0x3efeb82dbf260b70U,
  0xbf28b9b03dd0f418U, 0xbf451a4dbc9e85e8U, 0x3d3281f1be08af14U, 0x3d3d4f42beb818c3U,
  0x3e8e1241bef36110U, 0x3e67db3e3db293d6U, 0x3edb5b9dbcb95b80U, 0x3e0aecaa3d3b0a51U,
  0xbcd71c7dbea15201U, 0x3e47ae80bed6139bU, 0x3e6e0942be992f0aU, 0xbeb1f59abe8a81bdU,
  0x3e950741be128d8bU, 0x3e3f3b463edf3d09U, 0xbc6d7674becc04cdU, 0x3f15d4dfbef7fd5aU,
  0xbec438dbbecdb218U, 0xbdf9870abf1e0f1dU, 0x3d9a377b3eccabe7U, 0xbe8c1519be990d8cU,
  0x3eedc5743eb1bb86U, 0xbd9d724b3f51e22cU, 0x3da96a6abead3bcbU, 0x3efa5a283e07a1d5U,
  0xbd638db33ea9d11aU, 0xbd4c3a54bede9cf6U, 0x3c87d5c0be341a54U, 0xbf29b9a7bf28ef09U,
  0x3e92555dbe9f2f92U, 0x3d1b7eb53e35e559U, 0x3e92d0e03de54a44U, 0x3d870bc63eb33d7dU,
  0xbee85e183e81cdbfU, 0xbdae7f28be6409efU, 0x3e91b6fa3ed03b23U, 0x3e8b4fa0be87f84fU,
  0x3f0022e53ed863d0U, 0xbdf15ea63e2e4254U, 0x3eb3528f3e8cb5f3U, 0x3f5967b93edd65e6U,
  0xbee4f0acbd84d13dU, 0xbf52a4cf3b977febU, 0xbeb3663abe2ee6faU, 0xbecfbe8b3c9eb5cdU,
  0x3eff5b483d4c38d3U, 0xbe91c9843f332ef8U, 0xbebd4e41be9c1bdaU, 0x3f19a1abbecb155bU,
  0xbe9367c73e4800afU, 0x3dd14dc1bf261b31U, 0xbda766013e2a2ef2U, 0x3e8967edbedf6b10U,
  0xbb7e7c203e2b4c2fU, 0x3e03ac07bc1424e5U, 0x3dbe2fc6bc8e4779U, 0xbd04c4fcbce4bb0aU,
  0xbd963f5300000000U, 0x3b906ebdbd849f3cU, 0xbc273151bdeeb052U, 0xbc9ee29dbe02ee79U,
  0xbe7a107ebf8959feU, 0xbf0fa954be25df9aU, 0xbf63da66beef6987U, 0xbef8e216bf6bbac5U,
  0x3f4794193e15834cU, 0x3f3772a0bc18ab77U, 0xbeb8b7bd3f0d65f1U, 0x3ee665fa3f02de7eU,
  0xbe9c9006beb64ab9U, 0x3ecb30d5bc91325cU, 0x3e73db6a3e822148U, 0x3ec72efc3f0ce89eU,
  0xbe7a4a1f3ec0ee0cU, 0xbf6976783eaa7e14U, 0xbeaf60f83ecb0c81U, 0xbe54a9fa3eeaf89fU,
  0xbf00b0393f7c3b49U, 0x3f5165f93ee7f15cU, 0x3f4b804b3ec08ea5U, 0x3e5270ab3f2a594fU,
  0xbf2087e13e4f179cU, 0xbf0f4a8dbe1c8146U, 0xbd0db62bbf94f2efU, 0xbfb100fcbf930fa1U,
  0xbe6c198dbe22ed2fU, 0xbf0ca6183e894e35U, 0x3ecbbd39bf066dc2U, 0x3ea9977d3f062b2bU,
  0x3e32651f3e12af50U, 0xbf84ee493cb5960cU, 0xbec18f363e53da3cU, 0xbdde4f393eeeaeb4U,
  0xbc6c2a76bdc2445dU, 0x3b68afb43db7164fU,
};


ai_handle g_strokes_weights_table[1 + 2] = {
  AI_HANDLE_PTR(AI_MAGIC_MARKER),
  AI_HANDLE_PTR(s_strokes_weights_array_u64),
  AI_HANDLE_PTR(AI_MAGIC_MARKER),
};

