/**
  ******************************************************************************
  * @file    strokes_data_params.c
  * @author  AST Embedded Analytics Research Platform
  * @date    Mon May  4 13:31:17 2026
  * @brief   AI Tool Automatic Code Generator for Embedded NN computing
  ******************************************************************************
  * Copyright (c) 2026 STMicroelectronics.
  * All rights reserved.
  *
  * This software is licensed under terms that can be found in the LICENSE file
  * in the root directory of this software component.
  * If no LICENSE file comes with this software, it is provided AS-IS.
  ******************************************************************************
  */

#include "strokes_data_params.h"


/**  Activations Section  ****************************************************/
ai_handle g_strokes_activations_table[1 + 2] = {
  AI_HANDLE_PTR(AI_MAGIC_MARKER),
  AI_HANDLE_PTR(NULL),
  AI_HANDLE_PTR(AI_MAGIC_MARKER),
};




/**  Weights Section  ********************************************************/
AI_ALIGNED(32)
const ai_u64 s_strokes_weights_array_u64[9725] __attribute__((section(".strokes_utezi"), aligned(32))) = {
  0x3dda025bbeb8a305U, 0x3d9af9b9bdee2e23U, 0xbccaec08bb8f498bU, 0xbdc4fc7abcfe4fafU,
  0xbc92000c3c36b1dfU, 0xbdbf5ab03e0018a0U, 0xbcb582743de10098U, 0xbde1f88f3e49f84cU,
  0x3d33e2213d3932f5U, 0xbdd03d933e299c3fU, 0xbdab6d6cbdfa37f6U, 0xbe6c9ab43d936656U,
  0xbdb2ea183da29579U, 0xbe24a3a5bdf5a181U, 0xbd86e639bd2c58d0U, 0x3d5114cabd28098aU,
  0xbe02473abdb12fd7U, 0xbe2c130f3ca85a07U, 0xbe33194abd32304fU, 0x3dd0ad2bbd191a16U,
  0x3d82f261bdaccc15U, 0xbc897cc2be10af83U, 0xbd4a6922bce656ddU, 0x3e043324bd858ec9U,
  0x3cd48cf8bdb95015U, 0x3dabf9f0bd8fea56U, 0xbd067209bdf3206dU, 0x3d67e1a93df2a444U,
  0xbd9b19603df85d70U, 0xbd8d2aa23ecd43deU, 0xbd8f55d83ee3054aU, 0xbe3049d83f0e87ddU,
  0xbe4ad1843de19038U, 0xbc3f7c9f3e055d42U, 0x3ca7fd143e405239U, 0xbd0dcbe93ddba795U,
  0x3e04292abd246e34U, 0xbdc1f86f3e3663b3U, 0x3d37b8ed3b8bb61dU, 0x3d105889bb70ffa5U,
  0x3ce9934ebe0827bbU, 0x3e047089be01ba8cU, 0x3ce87afebea158a2U, 0xbd8bab12bddbb33fU,
  0x3d4647fbbe3a2677U, 0xbdf14541be5937cdU, 0xbc370f79be3e8331U, 0xbcb6fbf9be3ce5cdU,
  0xbe24e831be2c7511U, 0xbe0875933ca86177U, 0xbe46318d3da72cd0U, 0xbe54dd8a3d091681U,
  0xbdeb645a3d89e912U, 0x3e09c773bde6f8b5U, 0x3dd8ccd4be80b9deU, 0x3b19532bbe0f8b52U,
  0xbce3205fbeb9c353U, 0x3dd77531be9d5896U, 0x3e1d1a04bea65096U, 0x3e1a1d81bd240b88U,
  0xbcc576713e088f3cU, 0x3e11a2113da7e151U, 0x3dfa09ab3e96b3f5U, 0x3e8797c73e95fddeU,
  0xbdd68b143ed82c99U, 0xbdb61e783ee5d4a7U, 0x3d8b9e843ea29c34U, 0x3d90a7c63eaa8037U,
  0x3d66d8fb3db50df2U, 0x3e1a7e3d3e76501dU, 0x3e53593f3e37985dU, 0x3e3fdbe43d17fa3fU,
  0x3de33f07bd815885U, 0x3e10b0933d8319ccU, 0x3de6c83fbcf3d5f1U, 0xbcfa6b603d530904U,
  0xbd2e57da3c6a9729U, 0xbcc85a083e8d4159U, 0x3df53bb73e73807cU, 0x3cc2cc543e6e9237U,
  0x3bb54bf73e16fc70U, 0x3ca177d3bbdf18bcU, 0xbd531f21bd85b4e2U, 0x3d11566b3dc00562U,
  0xbdaab27c3d27a394U, 0x3dd825e1be5de302U, 0xbdeef27b3ca3e8d3U, 0xbe47fc1bbc2f74ccU,
  0xbd384e7d3d5764bfU, 0xbc656ba9bdf627a2U, 0xbe87cb8b3d805beaU, 0xbe6d5223bc5a6f08U,
  0xbe35289fbc1d9894U, 0xbe18d3a83e7d148aU, 0xbc9074783dd756abU, 0xbe5a79ff3ea27333U,
  0xbe5cbdbabe97a90cU, 0xbe2f6487be1f5ca5U, 0xbe2aaf68be8e6658U, 0xbe130f13be42ccf5U,
  0xbdf68f9e3d11df96U, 0xbe86b1c1bd6cac70U, 0xbe2a53d8bd9c4ff2U, 0xbdaa77833dca56c5U,
  0xbd9e3af3bdfd85dfU, 0xbdaff50abe65c7b1U, 0xbd3fa975be68c127U, 0xbd67093abe2c7581U,
  0xbdf5ea793d0605e2U, 0xbbbb29093da12801U, 0x3dae2f0fbd090261U, 0xbdebb2053d757354U,
  0xbce9bf20be033b94U, 0x3da518f7be5d4c72U, 0x3dfffaf4bdbff4e2U, 0x3c43978cbe2cac0bU,
  0x3ba77de83ca3b7b7U, 0x3d7e97acbdd41e6cU, 0x39a4a3dc3e34b5f9U, 0xbd06198a3d852b71U,
  0x3ccb97a93e2b6c56U, 0x3e8d981b3e93310bU, 0x3e84b0ba3d3c883dU, 0x3e95e4943e53a2e0U,
  0x3e077119be0301e1U, 0x3e7c52dabdd766cbU, 0x3e25707dbe93b8daU, 0x3e586edcbea51821U,
  0xbe992656beda8d60U, 0xbec95c76be158ebaU, 0xbe305b72be3b51b2U, 0xbec36041bdbf836cU,
  0xbeb721d33e01be3bU, 0xbe894f083d902d7eU, 0xbe4fe6263e8726a5U, 0xbe95d59e3ea1ff2bU,
  0xbe99f6413e68f8baU, 0xbd6feefa3e97ebf9U, 0xbce0835d3e85e001U, 0xbddd0c893de758f8U,
  0xbd8215e93e5fb360U, 0xbc11561a3e0a91e9U, 0x3e606f783e040f0aU, 0x3e3f504c3e4057f3U,
  0x3d045694bcb70761U, 0x3e2229e23da4ecddU, 0x3dca91ebbd906ffbU, 0x3d5cbfe5bdec6451U,
  0x3d1c395abda1dffbU, 0x3bc6773ebe383372U, 0x3dd0c8843dc5ae98U, 0x3c105c3d38eb3aeaU,
  0x3e6146ef3d6b0da1U, 0x3e991ab03c8128daU, 0x3da310b23e10c0c9U, 0x3e9907ae3e1affc4U,
  0x3de761f0bc44699cU, 0x3e59be96bd260ee8U, 0x3d883cdabe84c44cU, 0x3e2bec7bbec67b4fU,
  0xbd79207abdbdd75eU, 0x3d253c46be7acb6cU, 0xbaa09c15be409395U, 0xbd661c27be134202U,
  0xbc471bb6be4136acU, 0x3e1a83bdbdab8675U, 0xbdcc2b9ebea441a8U, 0x3de5b7f8bdd50428U,
  0xbda9ac4dbd044dc1U, 0xbdbab4eabd26938fU, 0x3d8a30fabe7de4b5U, 0xbdbc5265bdaa3763U,
  0xbd375e90be298db9U, 0x3cac23cebc1825a7U, 0xbb98e8bcbd5a0e88U, 0xbcd97e0abe3675dcU,
  0x3ca8131ebe179a89U, 0x3cde1d52bd9f0306U, 0xbe24ce6cbe0ea7bcU, 0xbe199058bdb70afeU,
  0x3d08a5aebda1058fU, 0x3c70d2f1bde72bd9U, 0xbdac58b43e05e2d0U, 0xbe217df03e084dd2U,
  0xbdcf76543c374fadU, 0x3c57876ebd4b6e85U, 0xbe04c1f7bd984cebU, 0xbe56235e3d4dcb33U,
  0xbd67388dbd8e93efU, 0xbe360a833b20fbb4U, 0xbe5a0116bc7f4130U, 0xbe6eee813e24542bU,
  0xbd8a89f23d571ad2U, 0x3db346cabd3c0755U, 0xbe06de4cbcacea5dU, 0xbddee380bdd73af3U,
  0xbd96c254be5d9b72U, 0x3e1ccf18bde833a5U, 0x3d63a6e3be35a36fU, 0x3d220f49be296a8bU,
  0xbda3c2e0bcc9b9ccU, 0xbe1c5325bda0bcc8U, 0xbe46ddc43da02a01U, 0x3bf72f263d663f5fU,
  0xbd7d3ed13da02b2eU, 0x3e0b89e8bdf868cfU, 0x3daeba6dbe08238cU, 0x3e7da7aebe0c370bU,
  0x3e46a6d33de7f028U, 0xbc910f72bd0a4b6bU, 0x3e397a353dd67c66U, 0x3da4dcfd3d8bdd25U,
  0xbe2586cd3cfd52b9U, 0xbd092fda3e05cf75U, 0xbdcd96f9bb4ee653U, 0x3dae11c93e306a97U,
  0xbdfcd5d53d1a2d18U, 0xbb66f1cd3e453c83U, 0x3e0416733ce75afbU, 0x3e108b653d4693d6U,
  0x3eb009013ea4d982U, 0x3eba3b343e78cbb9U, 0x3f0ec06f3e7e7bf6U, 0x3f39e4303e8b1d62U,
  0xbeaa7a45bdee535fU, 0xbf0606d6be52b972U, 0xbef0c664bed37265U, 0xbf0cec29be76e13eU,
  0xbec83d8bbef00dd0U, 0xbed8b9bcbedf7ce6U, 0xbf01f3dbbee48473U, 0xbebb0a0bbed4c6c8U,
  0xbee0ad6abeff4bb1U, 0xbedfb57abef06c1bU, 0xbed8cc61bec3586cU, 0xbeea5d96beab9d87U,
  0xbee1db11befe27e8U, 0xbedc90eabf0891afU, 0xbf080521beb756d0U, 0xbe9477e9bef3fce6U,
  0xbf035085bef57dc3U, 0xbec6fe22bef9edc9U, 0xbef1723ebea0153aU, 0xbed1ee2abea349bdU,
  0xbeffc0b2bf0861a2U, 0xbedd8a48becb0e05U, 0xbf00d057bef7b493U, 0xbedca5a8be95aee2U,
  0xbf0992f0bef2f81fU, 0xbf0a2f6dbec9ae00U, 0xbf0e9987bee268efU, 0xbe9ac70cbedd6f03U,
  0xbee947c9be9ba82bU, 0xbea99df9bef01dddU, 0xbe9b0c87beb0832dU, 0xbba8c68dbe9c3559U,
  0xbbb8e790be5f288bU, 0xbe3051f6be596abfU, 0xbe0fbb40be3afd12U, 0xbe680d7e3bf0b90cU,
  0xbdf89d0dbdacd03dU, 0xbe4653a5be0d0f00U, 0xbe494ceabe5bf1e7U, 0xbe3dd7aebd89e616U,
  0xbe492afd3c8d3f62U, 0x3d2aa94cbdc009c8U, 0xbcd96344bd10db60U, 0xbd6e875d3bcad2dcU,
  0xbe303576be06c4f5U, 0xbe69f3d0bd0556d8U, 0xbe473befbde8e1abU, 0xbe0adacabe3ad300U,
  0xbe4c9090ba884951U, 0xbdf7b2aa3c818b40U, 0xbe06ee8fbe8879c5U, 0xbe4cb848be0d973eU,
  0xbdcb8629bdf651e3U, 0xbda49e63be506772U, 0xbe555758be18108dU, 0xbe1c173dbcba6dd7U,
  0xbe1c134bbdb5b64eU, 0xbe125c1dbe7f89d0U, 0xbe5dfde7be6999f7U, 0xbc58a2babe3834ffU,
  0xbe47ca4a3ba04b87U, 0x3cbfae1fbe22902aU, 0xbd8c3a89be615837U, 0x38b453e4bdc58863U,
  0xbcb988adbe25f7b7U, 0x3e4fdc3cbe868180U, 0x3d7261d5bbbcd40aU, 0x3e482504ba8264b7U,
  0x3e5f5065bda4c964U, 0x3e6311b2bddec3c3U, 0x3e8282773cdb836bU, 0x3d1eab3bbd0c56f3U,
  0x3e419f643e21e232U, 0x3e46a5a83e52eef1U, 0xbd6d40e93e625ff4U, 0x3e0d0cd43e8fe613U,
  0xbdd6ae8e3d63ad7fU, 0xbe7705293e6ae85fU, 0xbe426e853e9da723U, 0xbdd9d3133e87c8a3U,
  0xbd879dd53e564dfaU, 0xbe42a1a0bc9682dbU, 0xbd9d4ef63d9501dfU, 0xbc90359cbc97c75dU,
  0xbe46d8323e22132eU, 0xbe3ed5363c3d814eU, 0xbcb458033cdea6c8U, 0x3d31cdf33d1cb9c8U,
  0x3e25cdf0be5e0063U, 0x3dc524e4be505f82U, 0x3e79357bbde216a1U, 0x3e8c295dbe840163U,
  0x3e0e58e5be307fb4U, 0x3e98ab2cbe25c406U, 0x3eb53a60bebdff99U, 0x3f067ddebe8003c7U,
  0x3ed0497b3c3608b3U, 0x3ebb7625bdb6793dU, 0x3e899242be730895U, 0x3e6cf814bd8aba54U,
  0x3e315abbbbb7de6cU, 0x3e577661bdb0e25aU, 0x3dacb05dbe153487U, 0x3e2c867f3d862d6cU,
  0xbb6428ca3d879b09U, 0x3e057d88bdb920a5U, 0x3df42a19bd9fbdc2U, 0x3d83cb13bdfaa530U,
  0xbc30c80ebd26c876U, 0xbcfa52f83db78b41U, 0xbdd925a8bda22287U, 0xbd29df463d8d761fU,
  0xbe7915db3d72297bU, 0x3bddc9c53cf0cd9dU, 0xbe4ea02dbd8bb0f8U, 0xbe69adf93dd3f2cbU,
  0xbdee3049bcecd294U, 0xbdc98cff3dd41303U, 0xbe3021aa3dc6edd3U, 0xbd5bd7c13dbb83faU,
  0x3e0aa23e3dd72e59U, 0x3e7b94ef3d8adcefU, 0x3c1658ab3d52a745U, 0x3de00ff6bd11f6b2U,
  0x3e01476dbe86d891U, 0x3e18577fbd0d0f65U, 0x3eab6b01bea3ba76U, 0x3eb4def2beb210bcU,
  0x3df9407dbe3f3694U, 0x3da2253dbe063b8eU, 0xbd2da331be8ffffbU, 0x3e051ba2be890e42U,
  0x3e2a758dbdc6632fU, 0xba8a3b4bbe0bd994U, 0x3de50e07be07b666U, 0x3e17550cbd6b16f8U,
  0x3e427357bdc61f90U, 0x3ddddfd1bdb10b95U, 0xbd8788843e019801U, 0x3e1af8de3e026937U,
  0x3e0574923bccf8f7U, 0x3c5297313d14bc98U, 0x3d103ddb3d982cd7U, 0xbd741d0c3d71a506U,
  0xbd87ac063e2b4001U, 0x3c028a6fbd30af79U, 0xbdcbf4583d4a3e4cU, 0xbdf0c555bc8f25c8U,
  0xbd900fb03d3e1de6U, 0x3d212fde3d4a707eU, 0x3d2a5d62bddc56f4U, 0x3df34e693d320367U,
  0xbe1d76cdbe24edbaU, 0xbc1a161ebd9dc98cU, 0xbcba8451bdfb0b29U, 0xbe0a8f94bcf4c95cU,
  0x3d324111bd8cefe1U, 0xbe0e187dbc1d1276U, 0xbe1b37e7be083a0bU, 0xbdaf8da4be058bdeU,
  0xbdeadce0bec47b2fU, 0x3dc68778be9f04f8U, 0x3d4da7bdbe95c84aU, 0x3e66fb6dbe345c34U,
  0x3e5eb14c3e0ecb9eU, 0x3e82548b3e57b8e2U, 0x3e6ff78a3d885e7bU, 0x3e601c613e9b846dU,
  0x3dd7b60d3e8f0744U, 0x3d7398b33de321feU, 0x3d8c189e3dd7ee86U, 0x3e0a1855bdb16234U,
  0x3da76c7b3db1f0efU, 0xbd8715cd3cb0e9d4U, 0xbd43b6c93ded7fecU, 0xbda69ee6bcda7a6bU,
  0x3e082052bdacf1deU, 0x3da57c483d2d2d88U, 0x3dd8d4343d10b319U, 0xbd8d6f513d481519U,
  0xbdc2e6553caddb79U, 0xbe43f812be001c28U, 0xbce80f1cbcf908f6U, 0xbdd1d1f8bd068260U,
  0x3d82e9ecbdd0ddd1U, 0x3c981162bd11b87aU, 0xbd168ddcbd83b72eU, 0x3e25d99f3cd4ba50U,
  0x3d819e2bbe18d9a6U, 0x3e187b09be50d163U, 0x3e89274fbe4beefaU, 0x3e5a1f61be0f9777U,
  0x3e039dc8becdf31bU, 0x3b01da15bea3d4dcU, 0xbdf04257bdb89ed7U, 0x3df85c34bc544fffU,
  0xbd8327e6bd18cbcaU, 0x3c285b9c3e6425ddU, 0xbd923c563e5dcb23U, 0x3ca1227a3e9b42cbU,
  0x3bcde9c73dfef2b2U, 0xbe49dd943e554ef6U, 0xbe365791bc3c1ad6U, 0xbe6ae48f3e4e6aa7U,
  0xbe4170d33d9dd6aeU, 0xbd1f77243cd47cf0U, 0xbdddbe4fbdf2a4d8U, 0xbe4445763e0fbefeU,
  0xbdf0dea9bcc04040U, 0xbe71d38b3dea53cbU, 0xbe8b324f3d8e362eU, 0xbe4aa72e3e5634aaU,
  0xbe3432423e80f0a6U, 0xbd572b053e6fe5c1U, 0xbe056bb03ea70ee1U, 0xbe728c223e35ad93U,
  0x3c1013973dd4c1b4U, 0xbd96d65f3d9368adU, 0x3cacd8dc3e1565d0U, 0x3dbc42e03dde988cU,
  0x3e33da8b3d70ace7U, 0x3d754f8dbe9c4261U, 0x3dce859dbe7d02f4U, 0x3cd00874beaf1e66U,
  0xbdf845cd3dd7773dU, 0xbe1c33ef3e0d9726U, 0xbe2d77843e2012f8U, 0xbcce48aa3e5661bfU,
  0xbe7fb4423ce9a6d5U, 0xbe4149f33e277113U, 0xbdb6cda13d542e00U, 0xbd8b87653da9eb96U,
  0x3d42bc343e326610U, 0xbdf938e43e8890c3U, 0x3d7c52bc3e8d555eU, 0xbd1f8f163d880068U,
  0x3c86177d3e87e892U, 0x3dd1ce843e11fcfdU, 0xbdfb3e293e5d1039U, 0x3d8316503e00848dU,
  0xbd077f293ce133a1U, 0xbdf73b323da1dcfbU, 0xbdc5e8483e5d5342U, 0xbcc1f8ba3da49d19U,
  0x3cfb00a43dcade63U, 0x3c8b5b143e7c4856U, 0x3c7984753e71ebe8U, 0x3da923913e421e58U,
  0x3e1c42373d4c6dc0U, 0x3ddb9cb5bdcbb0adU, 0x3e326a583dcf45baU, 0x3e3de9743dc7146dU,
  0x3e331a473d30cd53U, 0x3e1d668bbbf37528U, 0x3e2f50e1be111d04U, 0x3e5c2693be2feafcU,
  0x3e363c8fbf8ca3d1U, 0x3e1325d8bf5795a5U, 0x3e8375debf08eb76U, 0x3edfe48ebe2d6ee4U,
  0x3e193cdcbe3bc387U, 0x3e0ffcd83c256ea8U, 0x3d9078febc924743U, 0x3ddf816d3e1f6ac9U,
  0xbd4fd2f13d805647U, 0xbbac2781bdeb5c3bU, 0xbdd4946ebda44cd7U, 0x3e17e6043d554083U,
  0x3e47f1a43d70bb8cU, 0x3e6f6d943e0655e5U, 0x3e90e97a3d228f31U, 0x3e71462f3dbd2ecdU,
  0x3dc666f6be0afb6fU, 0x3ca83db1bc1d0018U, 0x3dbda0cc3ceadbf5U, 0x3e2365b7bd5b7b0fU,
  0x3e2d9b22bde64499U, 0x3e7a8f5abda5b115U, 0x3c48fc4abe6bcebcU, 0x3de2779fbe007a99U,
  0xbd8dfecbbe4d408dU, 0x3e300f1a3d53e12dU, 0xbcc6142cbdb9a625U, 0xbd64ea47bc85c4bcU,
  0xbd7ce0413e9f6c26U, 0xbe52ab873e9662e6U, 0xbe8140f23ebbadd1U, 0xbe13fb8b3ec83045U,
  0xbe185046be76a141U, 0xbd93ccf4be9b175aU, 0x3da78159be673422U, 0x3d712204bdbc7c94U,
  0x3dbdc5423e14ebd8U, 0xbd54b2693d94adaaU, 0x3e1947663dde323eU, 0xbd95390d3e768f94U,
  0x3d724c31bc30cf0fU, 0x3e11a4b73e4ab418U, 0x3e10c5b33e1c1cecU, 0x3dcd029f3c0e079cU,
  0x3e16aa3e3e0fdda9U, 0x3d9537c2bdace0ebU, 0x3e1cd4e3bd8586bcU, 0x3e834c183d258ef4U,
  0x3e0c1a01be72f84dU, 0x3d91b8a2be3a50e5U, 0xbd7e2c06be2ff923U, 0x3dce7a42be58c6dcU,
  0x3d9a0e27be899d6aU, 0x3db64ed0bdddd297U, 0x3b835a18be1e8e87U, 0xbd66a3fdbe1f4eefU,
  0x3c401544bd2141adU, 0xbe04b707be4a1fe9U, 0x3cbe3b3b3d37b94bU, 0xbd1c72eebd8b4bf2U,
  0xbe5559a83e2963f9U, 0xbe2e0c973b476ea9U, 0xbdc3bee53e9d3e24U, 0xbd7388dd3eaad92bU,
  0x3ea9b7623e777ac1U, 0x3cdaa6f53d116d6dU, 0x3df4a14f3e93d99eU, 0x3e1c2a213e608cadU,
  0x3d7fff393e0a71cbU, 0x3df7bcb13e76fa86U, 0xbde9f7b33ea70dceU, 0x3c48850b3e715dc2U,
  0x3d771c603e574abcU, 0x3d3a61e5bd034e9cU, 0x3d5b592fbda20b9eU, 0x3e50c72e3dac775dU,
  0x3d46ce9fbdc7738aU, 0x3d782a32bd99f4faU, 0x3deb3ff1be608c3bU, 0x3e3f65c3bd4a0767U,
  0x3e3bd8cabe703fbbU, 0x3b927c24bdca1959U, 0xbd9c8420bd786592U, 0xbbc7f515bd98aef2U,
  0xbdd5a158bdac3710U, 0xbdd9e50c3e01b8d6U, 0xbdc539653e374103U, 0x3d64ff773be7759bU,
  0xbd56c7dc3e4c05deU, 0x3c49c86b3e5276a0U, 0x3cd6d6d9bd49f840U, 0x3dac774dbc5191a1U,
  0x3db6a77d3e46496aU, 0xbd7b634a3e35d35aU, 0x3a9c42113d43e551U, 0x3cae7c51bd2d8086U,
  0x3e310e8bbe2c2d13U, 0x3e2bbe5ebe2339e1U, 0x3cd206143cf23364U, 0xbd2b69adbe0b3fbfU,
  0xbcae75713c3d546cU, 0x3d4ac58b3d464bccU, 0x3cf2520dbd02e8abU, 0x3e3b088a3bff9e2aU,
  0xbc385246be31363aU, 0xba1c4d3d3d626203U, 0x3e2dc23d3cdfcabfU, 0x3d0209cbbd1bbc79U,
  0xbd2b60623d842a80U, 0xbdfbca793beec6bdU, 0x3d75e7a3bddc38aeU, 0xbd9117f43c9e09f6U,
  0x3dd59664bce2bc99U, 0xbddf02953e0ef8a2U, 0xbd13bb88bd6ddb58U, 0xba66d3c4bd5de461U,
  0xbb26d7f93d05a94dU, 0x3e1ab3dcbd3fc877U, 0x3e79977b3d5b25e0U, 0x3e528e45bde878c2U,
  0x3d3a999ebd44cd06U, 0xbd05e8a1bd8053b0U, 0x3d9252d1bdb19486U, 0xbd710acebe11095aU,
  0xbdfc80aa3ac19b2bU, 0xbe12a7983dae3659U, 0x3cd42f6f3da61990U, 0xbe5b142a3eb736e5U,
  0x3e2f34b83eaed553U, 0x3cf277713e751188U, 0x3e045ede3eb7f0fcU, 0xbe1b07e23ea6e66cU,
  0xbcf24b923d7ce1d9U, 0xbd2dbdba3e04e91fU, 0xbd24947f3da5cbcaU, 0xbc2161e53d41a28cU,
  0xbe3820953c9da785U, 0x3c90b28a3e219f47U, 0x3bd3ad1f3d19809dU, 0x3d058de4bdcc2fb7U,
  0x3ca141363d81dc8cU, 0x3d1a5080bc60a5ecU, 0xbd88f286bcc230b8U, 0x3cf52430baaa0bc9U,
  0xbdd3fc49be406b92U, 0xbdc24746be00c7fbU, 0xbd81a5bebe8b5305U, 0x3d6f86c3be5a215bU,
  0x3de2b8b2be701280U, 0xbb89ee6cbd884957U, 0xbdf3428cbe2a03ecU, 0xbe0c2d043c48a4a8U,
  0xbd335e2c3d09d723U, 0x3dc4ec983dc98c8bU, 0xbdbcab0d3da0c15fU, 0x3c372a743e2f1ac0U,
  0xbe0cab283e7a97f6U, 0xbe6f65513e5b859cU, 0xbe5b63ce3e8fc7efU, 0xbe629b3a3ed53e87U,
  0x3e90335a3e33f629U, 0x3ebb9acf3bc05f38U, 0x3f0c1cd73e2788b8U, 0x3eff8b053d6c2603U,
  0x3eb88cb73e1937c6U, 0x3ec56ddebd56529bU, 0x3e7022e3bded3187U, 0x3eabc943bdd2ec14U,
  0x3e747d8bbd85f3e9U, 0x3dfc9f9fbd9c8786U, 0x3d3b610a3d43a730U, 0x3dedbbfebdff1d7aU,
  0x3d99cc4bbdc73181U, 0x3def90333db2fedaU, 0x3d2283e23d1a4483U, 0x3e31d9acbb1ee6c8U,
  0x3ddf38e6bd799daeU, 0xbdcad4953d4c6258U, 0x3c7bf3c0be7d79a8U, 0x3e1b0618be3cd4ebU,
  0x3b1c53aabdc8e2e4U, 0x3d197bafbe123802U, 0x3cfc12d1bda8e8dbU, 0xbd87d8db3d9be656U,
  0x3ccb987d3d32ede4U, 0x3d5f8d7cbd58b2abU, 0x3dd34fff3e4dd9b1U, 0x3da960603e52edccU,
  0x3e0401713e18d02eU, 0xbd843dae3e156f2cU, 0x3cc7e7ec3e06459fU, 0x3e43f7153e9c3c25U,
  0xbe46ca453c80b3a7U, 0xbc63150cbe827d42U, 0xbe84981ebe4948bdU, 0xbdd2523bbddd754bU,
  0xbde8addcbe76d540U, 0xbdafe002be4bd055U, 0xbe6914b6be957459U, 0x3bc53cdebe7d4d1cU,
  0x3dc0d836be269720U, 0x3c8dc4e1be955122U, 0x3ccac7f7be03b6f8U, 0xbe34cb3abe7f86a5U,
  0xbd190633bdd945d5U, 0x3da43b1bbe49b293U, 0xbe1f9b37beb3a9d9U, 0x3d5f893bbe467aa6U,
  0xbdd519fcbe2443c9U, 0xbdc67811bdcb2746U, 0x3db88276bdd7b3baU, 0x3c1aa3f33c82d011U,
  0xbd85a9a53e122264U, 0x3dbbc00c3e870b71U, 0xbe1d196c3e6f0268U, 0xbd8f76813e2bc70aU,
  0x3d4328473e9ce572U, 0x3c65696d3e9f1668U, 0x3d2185e53e9859fbU, 0xbda6b5ef3e7a4f6bU,
  0xbe2629623ea33978U, 0xbdc87a263e866bd7U, 0xbd2049c83ea9d0e9U, 0xbdcaf5f63eb60923U,
  0xbd2ad2123ec34de7U, 0xbd1c90643e47da6aU, 0x3d31d7d43d041d9aU, 0x3da2a54dbdc1a317U,
  0xbde4a5b8be7f9ff3U, 0x3d957bd7be5e2003U, 0xbe3724e1beb98edcU, 0xbdde76c1be84b2d8U,
  0xbe0edd25be9e0df7U, 0xbe88323bbe7269c6U, 0xbd4d8d5abe430bc3U, 0xbd99cb8b3c7fc038U,
  0xbea36010bd8cc18aU, 0xbeac0e30bc84f0f1U, 0xbe5a86b7be170a8aU, 0xbe694c41be2278e7U,
  0xbd9b524c3e466536U, 0xbb2cd0ba3d1d0c89U, 0xbdc6cda63e818b97U, 0xbd082e6b3e9a0b88U,
  0x3ded30713e81c24fU, 0x3e0a796f3e269687U, 0x3e442bf03e87bc78U, 0x3d6e5a2e3d66e7fdU,
  0x3cf3f56a3c89510fU, 0x3de1d8203ba12932U, 0x3e1e6d773e0ae619U, 0xbb0b381d3e37473bU,
  0x3d9d6a353e244928U, 0xbd7cd2fa3d8e0e0cU, 0x3df4de963e30b8e4U, 0x3d99c0843e711ec8U,
  0x3e041d973ed10bacU, 0x3e6d83183eb92822U, 0x3e4617b33dd2b127U, 0x3e5e8b803cba65faU,
  0x3e8fe1053a479594U, 0x3e0e91473d7603b6U, 0x3eaa2cf9bd266532U, 0x3e99f571bd90efceU,
  0x3e3dd8863dc17204U, 0x3da489b93d24f374U, 0x3e4541a6bddf07ccU, 0x3e199e783d6cd44eU,
  0x3dd487e0ba984de1U, 0x3b4d3c94bcdd3799U, 0x3dc277983d7f2199U, 0x3dbd396ebde6cd71U,
  0x3da713a2bcfb979dU, 0x3e2b5dbfbb3341cbU, 0x3e37d25cbe8b49bdU, 0x3e6c057fbe3db532U,
  0x3e289635be7bf3e5U, 0x3e6af4cfbe6bcc68U, 0x3dff2207be8a9aa2U, 0x3deb709cbe35c1d1U,
  0xbbff9315bddd39faU, 0x3ca3f9f4bdc9b0f2U, 0x3d8b73c8bdc630f1U, 0x3dc3986bbc5e8de4U,
  0x3d24c16d3e424275U, 0x3e4b10cf3e814b90U, 0x3d1c1ecd3e9377d2U, 0x3d8164a13e083429U,
  0xbd8873fbbdc198f9U, 0x3d74cc3cbdc30220U, 0xbc5e2200be1002f9U, 0xbd92bb38bd36fa4eU,
  0xbd9c59cd3dbf3be0U, 0xbdcdde7bbd678b6eU, 0xbd89027bbd90f3b5U, 0xbb41d2c0bd2c09a6U,
  0xbdf40ad23e0bccd2U, 0xbde5d7d2bd6b7ae8U, 0x3d7c10acbcb3d998U, 0x3e0234b0be0d1d77U,
  0xbc2aaf50bd726df0U, 0x3d7027f03ccfa538U, 0x3d71535cbe06a2aaU, 0x3c3dc0b03c725c80U,
  0xbcd2a09c3986c600U, 0xbde1c840bdb1b7deU, 0x3d25a4783dadbc72U, 0xbd3e18b63dfd34b0U,
  0xbce73b80bbd4b360U, 0xbe03bad43e00a6e6U, 0x3e0757cabc3bdee0U, 0xbc1fb4c0be0f93aeU,
  0xbdfa998eb8cca800U, 0xbd9894133dc2da16U, 0xbda484a3be0ecc3dU, 0x3dfa8a34bdee6f13U,
  0xbc106080be0462d7U, 0x3dc58f08bd0114e6U, 0xbd504aaa3d9e978aU, 0xbd39ac74bce33594U,
  0xbdf3c7643d4ce892U, 0x3db3978fbd7ecf6dU, 0x3d096c9b3c9c2786U, 0x3d9f3983bcb2f3b6U,
  0x3d694ae73d261803U, 0x3dbf9011be146d18U, 0xbded5bb63df9171fU, 0xbd986c883de0d4b5U,
  0x3c2f5770bd6f8ed6U, 0x3db495f8bd4da5dcU, 0xbd93fe97bd50cfa6U, 0xbdae42b4bd394a4eU,
  0xbdb5fdef3df9d593U, 0xbe07a925bd83c31dU, 0xbd8383de3d1739d5U, 0xbbfd1a51be02c927U,
  0xbe03decf3b85acfcU, 0x3e02d4e73dabe07cU, 0xbd849853bdd3e322U, 0x3df56bf93d50e9d7U,
  0xbe065309bdd8cf2cU, 0xbd85ad1b3cb66124U, 0x3cd7b8ec3b509664U, 0xbe10483e3ccba474U,
  0xbde966ccbdf602f7U, 0x3db1da49be0c009dU, 0x3d63f0dc3d535d30U, 0x3ddaa532bd1a28d4U,
  0xbd68b68b3cb0ae31U, 0x3dfb075abcfe62c9U, 0x3deed425bde38ee7U, 0xbc1785dcbd44368eU,
  0xbdbfa5223dcdf176U, 0x3da84750be08f0c1U, 0x3e05fc38bdbf7114U, 0xbab13b80bda297b9U,
  0x3cbebea0bd4a17a2U, 0x3d837c3e3dc79e52U, 0xbb4115c0bd6277acU, 0x3dad57443cef16b8U,
  0x3df61b5c3e08c71aU, 0x3d02bfd8bddd2442U, 0xbda89472bd230932U, 0xbda754afbdbc53f6U,
  0x3e0c4f1e3dd7687eU, 0x3d2a5c64bbf47a40U, 0x3d8dc990bd75f624U, 0x3dee6f203c828660U,
  0xbd918157bdd46c14U, 0x3e00bbe4be0ded16U, 0xbdbb6440bc663570U, 0xbe1174a83e049596U,
  0xbd8b6d7dbdcefb95U, 0x3d110f34bcf4eb84U, 0x3ce49f00be09e856U, 0x3de09830be0cb6fcU,
  0xbdfc4895bd3d365aU, 0xbd9fe2583d8b37a6U, 0xbca1914c3d8278c6U, 0xbdb4e4d5be0141c9U,
  0xbcc8d3acbe0af988U, 0xbdf6a5ad3d3b562cU, 0x3d69f198bde4c230U, 0x3c8d4638bbca4a00U,
  0x3e07a7263e1d7dd3U, 0x3e17f06c3d9067d7U, 0x3e1a60213e668a25U, 0x3b2d07a33e22577aU,
  0xbd79a225bd8e4bd3U, 0x3cba021cbe153a61U, 0xbd812698bd9a9409U, 0x3d4126f0be6e1742U,
  0x3dfcb152be9de32eU, 0xbbbfc197be3fa67aU, 0xbd52a798be49ba57U, 0x3da66898beb0b4beU,
  0x3db0e1f8be02605cU, 0xbc304712bea1ab7eU, 0x3cd8ffd7be880ac9U, 0x3d97e972be82d46fU,
  0x3d6b4318bd45fd4fU, 0x3df5e806bd5143fdU, 0x3e16fa59bd1a0dd8U, 0x3d8fd703bddde93eU,
  0x3dc249b33dc7366eU, 0xbe27e09e3e93e580U, 0xbd8afe433e75d077U, 0xbe40b82b3e6b7420U,
  0xbba886743e52060fU, 0xbd88ee493e59a78aU, 0xbe1aba673e988c26U, 0x3c2130c03e503368U,
  0x3dd4c4c73dd46e83U, 0x3c2dc169be140077U, 0x3e000517be830d04U, 0x3c52d5b5bf2037f0U,
  0xbbc2f4f8bd77ece0U, 0xbd78def53d9425a4U, 0xbc8b6d5e3e1806bcU, 0x3ca733b73c3a8291U,
  0xbd526e663d82bfe9U, 0xbe2b750a3d99f033U, 0x3d264b9b3c914bc6U, 0xbc54c280be521023U,
  0xbe11b29abdb54aa6U, 0xbe1482ddbe187a8aU, 0xbd449c39be43562cU, 0xbc4b884ebd96c879U,
  0xbde824f0be2468deU, 0x3d8adf7dbd7ab98bU, 0xbccef1ab3dd542d9U, 0x3dde781dbd6687f2U,
  0xbded582b3e0ac190U, 0xbd513f2f3e26d82dU, 0x3c00c19e3e350e61U, 0xbd4b9cec3dd5521eU,
  0x3d87874b3d94addeU, 0xbc5355fc3e880fd1U, 0xbd9bdc813eaf2aeeU, 0x3e1cd95d3ea4e6b9U,
  0x3ddf75543e8f55eaU, 0x3e24edbc3eaaa5f1U, 0x3e3bfd5f3e8a83d5U, 0x3e399a7bbb3692f2U,
  0xbdc87b82be0564edU, 0x3dc96144be8ebcf9U, 0xbe003bacbee1cec4U, 0xbe05ae9dbf08ff00U,
  0xbde3bf81be21492eU, 0x3d601c0abdf923bcU, 0x3c962be6bd4f999fU, 0xbd8bc742bd8bb6a4U,
  0xbc897fdc3aaabeb2U, 0x3d6c73bebcd0281bU, 0xbe57068c3e3a1eb8U, 0xbe5c2dc83d937052U,
  0xbe1962e93e799f15U, 0x3d6153093dd9f2ebU, 0xbdeb99463ded1224U, 0xbe4502bb3de72ec9U,
  0xbd6cf7343d8576b2U, 0xbd6fb033bd3dc305U, 0xbccbe2fc3de83019U, 0x3d8ef4953e47197aU,
  0xbd81654d3dd18493U, 0xbd9c711cbd7e5daeU, 0xbe1a2bbb3e187369U, 0x3d95c6b63e1b111eU,
  0xbdc0bb3f3e9091f4U, 0x3e0d7c2a3e8cabc9U, 0x3d60e8d93dbd331aU, 0xbda1a9243e66c393U,
  0x3d1cdc1e3e4d4645U, 0x3e4fa8e13d999ad3U, 0x3de74566bcc60af0U, 0x3e0e13b1bdefe7e4U,
  0x3db6aa0abda2fffdU, 0xbd4e47bdbe2370e3U, 0x3d9502c4be41cef5U, 0x3e233f2ebea803feU,
  0xbf5b92453eb33cc1U, 0xbf3f2d353e047de5U, 0xbee3f6e6bc0819c4U, 0xbe72be34be093833U,
  0xbe9924c7be83f5c9U, 0xbdaeba0dbe1ec5caU, 0xbd81f00bbe45c110U, 0xbe3b55783db4ea4aU,
  0xbe1c60893dc401c6U, 0xbedad3d23e280654U, 0xbe29ce013e43e4f2U, 0xbe26ce703ebedc27U,
  0xbeb690a83eff957bU, 0xbe9795243f032eb8U, 0xbcd163eb3f082555U, 0xbe155a1b3f0d189cU,
  0xbcb399663eaeeef1U, 0xbd5eee183ed2c813U, 0x3dc465b83e4a4f71U, 0xbdfc98343ebf406dU,
  0xbda2d2b93dc798c4U, 0xbe0c16863e8cb18eU, 0xbea4e89b3dca2da5U, 0xbe2ad9c93dabfd0eU,
  0xbe82c8f33e4d0a64U, 0xbe7240363b1ffafcU, 0xbe860cc03e2c55ecU, 0xbeb88f0c3b2e7009U,
  0xbde26d863d691e07U, 0xbe3f1ebcbd727e35U, 0xbdf3784e3e1a44cfU, 0xbd5a05713e21400dU,
  0xbd170a203e22c6f0U, 0xbe260589be0d3ba1U, 0xbe212e703dd15bbdU, 0xbdb04921bc2f2691U,
  0xbe3493dabd5d3de5U, 0xbcf88b2e3e2f90a1U, 0xbe2911203d63a05bU, 0xbbf262403e76d781U,
  0xbd92d6793e56b8d7U, 0xbaecb30e3ca01c69U, 0x3e81543fbcc1cb7dU, 0x3e3aaf5fbd5114adU,
  0x3e00d32ebdd8ccecU, 0x3e4643f8bec64d08U, 0x3e907575bec8aa1cU, 0x3e5ef6fbbee7e33bU,
  0x3dcba74dbe6931f9U, 0x3c81a41cbe7f6698U, 0x3df8378abeb22629U, 0xbb76a6d5be9db1c5U,
  0x3e4a0649be5925b4U, 0x3e95eb473d42a8f1U, 0x3e8dde57bdc8604eU, 0x3e3063d33ce107b6U,
  0x3e47aab839c469a9U, 0x3e35c861bdbfa552U, 0xbd27ae923dd12278U, 0x3d0664703e2f9ebbU,
  0x3ce331113e6c350cU, 0x3dbb22de3d95ec04U, 0x3e076e8f3e0fe991U, 0xbd9acb82bc8d4217U,
  0xbf288f7d3e200930U, 0xbf0be9f2bd46201dU, 0xbf0055133dea93f9U, 0xbee589c63dcfc349U,
  0xbec181ac3d9d5e0dU, 0xbeb48a8c3df08bbcU, 0xbec3e4f6be02bc05U, 0xbeb27a283dceb218U,
  0xbe9f443b3db62f9cU, 0xbe7afe293deca927U, 0xbe3a21933e2c55f1U, 0xbe96d42f3e4626f1U,
  0xbe538e233d9809c0U, 0xbe5ba47e3c05b99bU, 0xbd682e063d17849cU, 0xbe97ee563dacfbceU,
  0xbe2dd3883e23a68dU, 0xbe272bd63e4e3e23U, 0xbd89ea793e4a6c23U, 0xbe95e86f3e1421d3U,
  0xbe1e4928bb93538dU, 0xbea3c1b23a14ca87U, 0xbe74dff43e03df0cU, 0xbe8304f6bdb3a126U,
  0xbe87e8e93e0f389aU, 0xbead1fc33df52e1eU, 0xbe9fb14b3e0af01aU, 0xbea0f40bbd10ea80U,
  0xbe78d352bc913dc4U, 0xbee2287b3d16bbbeU, 0xbeec410d3d56b5a3U, 0xbeeb38e03d187ecdU,
  0x3a5a889ebdafa0acU, 0x3e64b4cbbe309df2U, 0x3ec64942be1bb0a9U, 0x3ee4fa36be2983d1U,
  0x3ef62f1bbe73dc08U, 0x3e9a9fa7beb58a67U, 0x3ee8ecbbbe33e4f8U, 0x3ef402b6be920e90U,
  0x3ea92d15be9157c8U, 0x3d8a6b76bdd689e0U, 0x3df6c5df3bab4942U, 0x3e089bc6bc85ee3cU,
  0x3bfff215bd84eb13U, 0x3e8431053cf90dc7U, 0x3e598465bdcdd1f4U, 0x3d061efc3d81f1d0U,
  0xbd1314b9bd0cb7d3U, 0x3dc933c6bd03991dU, 0xbc0cd0a7bd9ed86dU, 0xbd218c2ebe83e327U,
  0x3dec993dbebfabbcU, 0x3e3e6bd2bef4c102U, 0x3e47408dbef67875U, 0x3c826f37bf05ffa1U,
  0x3e0eeefdbed08b44U, 0x3e382f9dbe5f6e35U, 0x3e1496cdbeb1881dU, 0x3c8b0920be4a6a89U,
  0x3e358473be8b900bU, 0x3e4da3c6be8a3f7cU, 0x3e2bf219be991d4fU, 0x3eae55863da1ecafU,
  0x3ec4d4e5be47cefdU, 0x3e53f612be58a5e9U, 0x3e9544e6bdadd833U, 0x3dd76474bdc98316U,
  0x3d778f5fbeae21cdU, 0x3d0f7cd8bdd4d33cU, 0x3dd7169dbe663d3dU, 0x3e264d9abeb354b8U,
  0xbcb8a51ebead648dU, 0xbc9a8f7bbe95b83aU, 0xbdb409adbe3e4cf6U, 0x3d213f45bd9844f7U,
  0xbe215757be22a4e9U, 0xbcf9daa5be8415a6U, 0xbe088eebbd1ecfe0U, 0x3de2df48be3ac40aU,
  0xbac8f9d23d7baaeeU, 0xbd3988b33d86552bU, 0xbe5e20113dcfe343U, 0xbe2e9adb3e06606bU,
  0xbe09889bbc395796U, 0xbeaf2cc03ddce991U, 0xbec73b72bdb542e7U, 0xbeccc75f3b52d9f7U,
  0xbeb58e2b3a84b875U, 0xbedb3a13bde42106U, 0xbed4f4d8be302fb9U, 0xbeb2b2debe88ee93U,
  0xbeb1296bbe6245fbU, 0xbe6bc7afbf08f827U, 0xbe9ca2bebf0ad558U, 0xbeb3607bbf232963U,
  0x3e87a53cbe011b16U, 0x3e8c29c9be720eb7U, 0x3e812a23be5ee7deU, 0x3ebbe297bd45061eU,
  0x3e9859debd9e996aU, 0x3e5bd786be6c1820U, 0x3e8d63ddbe9c9c44U, 0x3e25d85abe96aef7U,
  0x3e2282e9be2bb5e4U, 0x3e636b85be2500c3U, 0x3eb63386bdc9dd89U, 0x3e7fd17dbe5b47fbU,
  0x3e71a7bdbd12df47U, 0x3e4272013c8f718bU, 0x3e97735bbe13798eU, 0x3ebb3463be175c01U,
  0x3dcfd2a2be5a78f3U, 0x3e3212a43d0c4d5aU, 0x3e126e23bc81db3bU, 0x3e9bedc1bc9e55f5U,
  0x3ea25b5a3d0f73b3U, 0x3e57fead3e16018bU, 0x3ec161dfbd78de9aU, 0x3e8416dcbd8ae7c4U,
  0x3ec494b73dc383e3U, 0x3e7bf966bdd05f7fU, 0x3e9851a93d66cef8U, 0x3e57a1ef3e12dc17U,
  0x3e19136c3d8f62b6U, 0x3e8df7243e37b086U, 0x3ea77363bc78ee35U, 0x3eab053fbc6434cfU,
  0xbd7a1913bf0a50cdU, 0x3e4f4e87bed85f24U, 0x3cf0fefbbe8f7491U, 0x3dd3a7623c13a4bcU,
  0x3d4530a43e719b8bU, 0x3e82e8b93dd4dc82U, 0x3db464ba3e1af9ebU, 0x3e20e6543e97beabU,
  0x3e7285e43eb4bf92U, 0x3e6279453e8d7e4aU, 0x3d1173943d88d739U, 0x3cfd74dbbd918319U,
  0xbd4d01103df7e800U, 0x3d753474bdd3387cU, 0x3e1c25d8bdb4fcc3U, 0x3dc40accbb88d93bU,
  0x3e616f76bd91a2faU, 0x3d91fda5be0bd5a2U, 0x3e12c8b83c1718c1U, 0xbd900bbf3c9caab6U,
  0xbd5e6c27bde9e464U, 0x3e615d76be89b517U, 0x3d4d9c62be96a1feU, 0x3e2a1765be935540U,
  0x3e127cd1be833a35U, 0x3e0ec0a6be0aae9fU, 0x3cd89097be1cb149U, 0x3d6003483df62839U,
  0x3b32cf9b3d9ebdc7U, 0x3e3a4e8c3de038f3U, 0x3e6986d03ea57b7cU, 0x3e0582993e9c4356U,
  0xbdb2ae0cbe2c399aU, 0xbd8c09e0be609e5bU, 0x3df7821fbdcfe9feU, 0xbdeff0a3bd07bfccU,
  0x3b0a85b33e8cbc8aU, 0x3db3005a3e48a01fU, 0x3d9111e83e888abeU, 0xbdc81b0b3e6f52c2U,
  0x3e0d14043e279573U, 0xbd9876313e2ee1a0U, 0x3dfeed253e19d45aU, 0xbd8a1af8bd2771ecU,
  0x3e20db6c3d8da96aU, 0xbd9d02913e253d6fU, 0x3e249bcc3c29caafU, 0x3d8cfc6dbd93eb47U,
  0xbcd8a26cbd61b4e8U, 0xbd8251e63d7354c3U, 0xbde76ecebe2b60e0U, 0xbdd986bbbe230501U,
  0xbdd2ccc5bd145da3U, 0x3d2fc4bb3cfb363eU, 0xbb1bd5793d4f86ffU, 0xbc905edbbdc15ecfU,
  0xbdedcee3bda96e30U, 0x3e1dce4ebdc541f1U, 0x3d6757b9bd887899U, 0xbd5eccdbbd30d144U,
  0x3e01a5db3e2a6adeU, 0x3cfa66cb3e2dbeb6U, 0x3da161803e875a27U, 0x3dce69ab3e84c412U,
  0x39cb5587be40a732U, 0xbda22b16be2dcdc7U, 0xbd5a28ebbd9c6ca0U, 0xbe856b373da497aeU,
  0xbe3c876abdbf5500U, 0xbe39c4513db0d623U, 0xbea176a23e30a88aU, 0xbe63f9443b83bfa3U,
  0xbe7e9ffd3dfa0ecaU, 0xbe52a2993e079e1bU, 0xbd5778dbbe16275cU, 0xbe1956be3cb7dd45U,
  0x3dba3b20be05cd0cU, 0xbd9bb8acbce25d7fU, 0x3e0c4650bd2d4235U, 0x3d365202bd8e302eU,
  0x3e1b912fbe309c1aU, 0x3d8f427ebe683409U, 0x3d624382bdf8e243U, 0xbe2237a4be07005aU,
  0xbce1a9c9bca1fba2U, 0xbd37aa933d6b878fU, 0xbcfe4b1d3e369926U, 0x3b6212163e353a55U,
  0xbdbd772cbd077ab9U, 0x3db7ed363e0df671U, 0xbdf9713dbd3d883eU, 0x3c79ac84bc7474abU,
  0x3d4cafba3e0d9db0U, 0xbe077ae63cb2a8dbU, 0xbda08b54bdcd568eU, 0x3cd42ea03d055ba8U,
  0xbd0cba4d3f292d1aU, 0xbe8416973f06f1e1U, 0xbe9196113ec9afcaU, 0xbe9c41d73eaf70c7U,
  0xbe723a023d001332U, 0xbe9b43cebe6834eaU, 0xbd503d26be9e3f75U, 0x3be96a5abe59898fU,
  0xbdc6805abe832854U, 0x3e0ab5adbe97e6d7U, 0x3cf0ce38be12acfdU, 0x3e8a8dafbc29a877U,
  0x3e3267b5be32f1c4U, 0x3e0ea8a3bdf3fa20U, 0x3e6cb23b3d9b5775U, 0x3d8f93283e07edadU,
  0x3d25e6c73d8107f2U, 0xbce65c613e7a03c0U, 0xb969f4713dce8f13U, 0x3e0c1e783d6083fdU,
  0x3dba62e53e557837U, 0x3dc283763d90437aU, 0x3e29985f3cf82b35U, 0x3e663d5ebcdfc4cbU,
  0x3e6a5300bdeab4f7U, 0x3e292343be044fa0U, 0x3e776b76bdff0bfeU, 0x3e6bc3e3be8409eaU,
  0x3ea39b71be09b853U, 0x3e47669dbe022a43U, 0x3ec1f6bdbebe898bU, 0x3e6dba0ebe4d5adbU,
  0xbd3f71b73e0e804bU, 0x3c01be923c72d1cdU, 0x3cb9206cbd855477U, 0x3dfbfacd3df5bdc7U,
  0xbd91d25fbd4343afU, 0x3d764eeb3dd7845fU, 0x3a248ed3be2987ebU, 0xbd8945abbde5c596U,
  0x3c11b36e3cf9fa6dU, 0xbd369b993d1de57bU, 0xbe5a48043c43eb05U, 0xbe8f8de33d397a38U,
  0xbe972cbbbe364edaU, 0xbe7039f73d8e505eU, 0xbec61afcbd9ed91bU, 0xbeb8baed3c5a0fa0U,
  0xbed4ed2dbe17ce87U, 0xbe9e812f3d80395bU, 0xbee8fb92bd8e3291U, 0xbed467c63c8b1794U,
  0xbef45556bdd1b1eaU, 0xbf2ae472bd85137bU, 0xbf3f28bf3d283574U, 0xbf1606f03ce48a41U,
  0xbf39781c3e148272U, 0xbef670f23d8c113fU, 0xbf3817b53e040e53U, 0xbf227cc73ea31ae7U,
  0xbf140ea43e4f05d8U, 0xbeef00763e8c23abU, 0xbeb64cf23ef6661eU, 0xbedc8d423eb8f941U,
  0x3e3f129ebc487024U, 0x3dce6985bdeefbc9U, 0x3eb78bf8be801e0cU, 0x3e2d85cdbd8debf2U,
  0x3eac249cbd8f7eb0U, 0x3eb2f767be30db76U, 0x3dc377dfbdfba842U, 0x3e96fc3dbdf6e5baU,
  0x3e8bf12fbcd0f063U, 0x3dca328dbe4b38b0U, 0x3e8c392cbe4ac242U, 0x3eaace05be2d810cU,
  0x3e8440fbbcdad6eeU, 0x3e434961bdabec3cU, 0x3e6c067cbd93bcefU, 0x3d37d398be1fdacfU,
  0x3e80b351bda3e938U, 0x3e842e3b3d4f0a7fU, 0x3e1f49fabd39947aU, 0x3ea24a50be08a367U,
  0x3e855d27be003d7fU, 0x3e7355083ddd7247U, 0x3e3d926fbd99d35eU, 0x3eb859353db131b0U,
  0x3e1979853d8f717dU, 0x3e3e5352badf9b16U, 0x3e4a91b3be01fff2U, 0x3eb22da5bc6b1af4U,
  0x3e86ff9abdb685d5U, 0x3e12f991be109ae9U, 0x3eb965743c38442dU, 0x3e859be03dd14fe8U,
  0x3cf9ab83bcd01a61U, 0x3e008d48bdb80677U, 0xbd15b0c6bdfc57f6U, 0x3e283e8abc3f440eU,
  0x3dd96c623ca0f7f5U, 0x3ca3c9fd3d6578c6U, 0x3de402923e2f9da7U, 0x3df7db6dbd07219bU,
  0x3dde9436bc28a5aaU, 0xbc5a6802bd8cad39U, 0x3dd03390bdd7b2deU, 0x3e57d896bd99f1e9U,
  0x3e17bfed3d57af04U, 0x3b8a0187be01bec8U, 0xbd748c8cbccbb602U, 0x3d45c60d3b2a56d4U,
  0x3da4c5f0be215967U, 0xbdfd99ecbbef788fU, 0xbd31321b3dcd8835U, 0x3deb3246be327336U,
  0xbe16913fbd251ebfU, 0x3d9a66a0be4ac712U, 0xbd8ec03b3d5feb32U, 0x3daf732bbd6a2436U,
  0x3cd187fabcd74601U, 0x3e3552f7be078a2aU, 0x3e379a69bd233ed0U, 0x3e8c895e3d3da234U,
  0x3e83c0f1bbe654a5U, 0x3ebdd909bd45737bU, 0x3ede4b4dbd2d8c33U, 0x3ed24e6dbbae6965U,
  0x3e51a529bdaa32b1U, 0x3e4406183d144067U, 0x3d954ef43d225213U, 0x3d4c0d13bccb40b3U,
  0xbd6d809abd8c86c2U, 0x3d9cc8603dc0157bU, 0x3c61c12c3da29774U, 0xbc220c673c0d194cU,
  0x3ddff310bd099e5fU, 0x3bc6296cbd97c76fU, 0xbdcc4e14bdfb9c27U, 0xbc63c863bd9e7b45U,
  0xbc0892d2bd909899U, 0xbe438351bd8d57b0U, 0xbe663266baf496f4U, 0xbe16afa5bd58af50U,
  0xbd38b4e43c05af45U, 0xbca634f73dcd44c5U, 0x3d6a7e353d1c77d9U, 0x3e1d48253dd2fcaaU,
  0xbbf8ec773e299d98U, 0x3d3a11583e16a28aU, 0xbd36bb43bd166d97U, 0x3e1f89debdf83b88U,
  0x3e9e1d673e045241U, 0x3dcb74f53d099bd9U, 0x3e5a966b3e68d2f3U, 0x3eae014a3dbd9b5bU,
  0x3e8bdd32bc76e9dcU, 0x3edc747a3e0f9105U, 0x3ebd8af33d8e9baaU, 0x3ed06a493d866c87U,
  0xbef984f7bed3c3d8U, 0xbeecb096be95281cU, 0xbed41c90be9ff7c6U, 0xbec58bd5beaac430U,
  0xbef84788bee14d2eU, 0xbef5f71dbe9c95a2U, 0xbea2affbbee0bf60U, 0xbec6b1f1bee09187U,
  0xbe835bb5bec99f1cU, 0xbeccd3bcbe828e2eU, 0xbef8d6ffbe9e0916U, 0xbedb1d22be9cf465U,
  0xbf04d816be996608U, 0xbed816cebe9bc5b2U, 0xbee77b33be827448U, 0xbec37237bee73e92U,
  0xbed1f557beb21466U, 0xbe83f0d5be998568U, 0xbef0c92abeb55d4fU, 0xbe54d5fcbe96d53bU,
  0xbe732ae2bea322a7U, 0xbe768c10be520aafU, 0xbe968be9bebdfe96U, 0xbebb1640beb39b39U,
  0xbecfac6fbed32c11U, 0xbed9887cbedd52ecU, 0xbec10b54beea5c09U, 0xbecf1537beea9c7aU,
  0xbea71e42be507a50U, 0xbee0d360be4c661bU, 0xbec0012ebe9d75c4U, 0xbeb6310ebe4191bdU,
  0xbe2aa70ebec4f450U, 0x3c2c2fabbeffcb8aU, 0xbd8812c0bec349d8U, 0xbe617fd1be1092b6U,
  0xbd03b0abbe13faa5U, 0x3b04861cbdda96caU, 0x3d0a83f5bdce26a7U, 0xbddaf1123de08186U,
  0x3d430ca73e291ec0U, 0xbe1653babca8e5deU, 0xbd40fa423d8220ccU, 0xbda176f0bd014b3cU,
  0xbdb9f5bb3e004a7aU, 0xbe1f5b51bd3a2b5fU, 0xbda78e42be080cffU, 0xbcde76dabd1d6180U,
  0x3b9096a53c82dd54U, 0x3e216f19bd180ea8U, 0x3da97300bda86913U, 0x3dd195c03bd68635U,
  0xbce0e0453d4050cbU, 0x3e23af0d3c15d34bU, 0xbd5aa75fbe2fb8cbU, 0xbccdff22be062a58U,
  0x3dcc1042be286b5eU, 0xbd344cad3deed2c6U, 0x3dd8c47b3dfc9e75U, 0x3d8738053cfbda5bU,
  0x3d939e283e50966dU, 0x3d207e7c3ea2bed7U, 0xbd817cbb3e84e5dfU, 0x3dc611ba3ee6e694U,
  0xbf3ffccbbefb8218U, 0xbf539f9ebefce0b1U, 0xbf244ea9be92723fU, 0xbf0e7f8abe84bc21U,
  0xbf0ecf4ebdac5cb9U, 0xbf0cc3f03deebb33U, 0xbeb9b4f03eacebe7U, 0xbeaed4d03e958a47U,
  0xbe976e923ebc27b1U, 0xbe1dcc743e4d3003U, 0x3dd6bd683e8b3b5bU, 0xbd9e8fd43de31f79U,
  0x3d6917233c8eb599U, 0x3d95284d3dd96dd4U, 0x3dcdb5e23db7d7f4U, 0xba62a6bebe1102bbU,
  0x3e5a3a9f3cac286dU, 0x3d1afcabbdab0443U, 0x3e09ead1be6b366aU, 0xbcc2282bbe85bef0U,
  0x3dc7ce03be2939a7U, 0x3dd14acebccc7843U, 0x3d3d6c67bcff7b90U, 0x3e3059773d5df747U,
  0xbca7316cba729619U, 0xbda04dba3e04d76dU, 0x3e2c20853e3f1b27U, 0x3d19ce96bc17bf29U,
  0x3e4664d33e3de76cU, 0x3e372f0d3e73fc85U, 0x3e00f5cc3e6f5318U, 0x3e93a8cdbd1578bbU,
  0xbcbad7a73e8dd088U, 0xbc93284a3e4bee80U, 0xbe09dd553e67a53aU, 0xbdb7beca3e8954d0U,
  0xbe26e99a3e137e1aU, 0xbe934a6b3dfa949cU, 0xbde0bb523e57b236U, 0xbe2e6a263e1b64b3U,
  0xbe5d23773d352628U, 0xbd198ced3d196bd8U, 0xbdab6dc63ddad484U, 0x3e0dfd0e3dd01054U,
  0x3de50afbbd98675cU, 0x3c9850ec3dfe60e7U, 0x3e64a0d9bdab4c1eU, 0x3e4d820f3d5ef759U,
  0x3db920b53de2ed54U, 0x3dc921c03cefd952U, 0x3de49094bd5c5e83U, 0xbdd7cb443e1677d9U,
  0xbe0b9d313d326b89U, 0x3d06bdcd3d14ed87U, 0xbdf40b30bde12398U, 0x3d4cca8b3e12fe7bU,
  0xbdfce7463dd73090U, 0xbd9f070dbd3c3c08U, 0xbd4ea8953ccbee15U, 0xbe69ffe93df8afb6U,
  0xbe584091bdd50062U, 0xbe56caa13ca95311U, 0xbe2f4e7d3d85b76cU, 0xbe913bb83d43825dU,
  0xbbb1d3a4be1a7656U, 0xbcac32dabdc38d1bU, 0x3d107d53be99bf52U, 0x3e6b41a0be424413U,
  0xb90736d6be8a8fb8U, 0x3e1fbd35be609a6bU, 0x3e0411fdbe969866U, 0x3e83f053be7697b5U,
  0x3da5ad8bbe56eff9U, 0x3e52a30bbd7ab2e2U, 0x3e2beb7e3c26d3c5U, 0x3eb3b395bdda3747U,
  0x3e62eb04be18a4f4U, 0x3dbed770bdc7ada3U, 0xbdb1e4f8be4226f3U, 0xbd0d0158bdb1bbf1U,
  0xbdb58e6eba08185cU, 0xbdd9514bbdb30491U, 0xbe1145c0bc4c33abU, 0xbe0556d9bd379438U,
  0x3cff88af3e4acea0U, 0xbe2cf99a3d905e67U, 0xbcb5d8ab3e3e707fU, 0xbdef26273e41a65aU,
  0xbd9923fd3e7056a5U, 0xbdd352243e08e725U, 0xbd9852ca3dd4d279U, 0xbd351eeebcfb19f1U,
  0xbc9f0e4fbded9c6aU, 0x3c5f6344be43e840U, 0xbcd6c167be8532cbU, 0xbb7287d9be7d72dfU,
  0x3dbf4db53dc2b226U, 0x3e9b7c953e147465U, 0x3e5d0a6ebdc575a6U, 0x3e82de98be203f5bU,
  0x3e675a7ebe5aa15cU, 0x3e54932dbe7e94c0U, 0x3e0bcc5cbe9cf271U, 0x3e76aff4be5759ffU,
  0x3e12767dbe52a7f6U, 0x3b30e962bdc17994U, 0x3d8f4cdabccfde4aU, 0x3d3b5b3b3e15c4bdU,
  0x3df69c2f3d7a1f7eU, 0xbe18655a3dc5094dU, 0x3d63f41a3dca0259U, 0x3d35a4b23cb5a191U,
  0x3d3507b53e63e5afU, 0xbdfd04223e558f0dU, 0xbbe5a2f13e6a86adU, 0x3d60fecd3decfea7U,
  0xbce579973eb4fc1eU, 0x3e0bddb83e9e4946U, 0x3e2363713ed065eaU, 0x3c522c1c3ed0557aU,
  0x3e68f7613eb9ef83U, 0x3e7a1eb63e346f52U, 0x3cda05fb3e5e3139U, 0x3dacb3083e490da2U,
  0x3e5ece9e3d0ce540U, 0xbcbff8673b7fd714U, 0x3dc4d89abe11eff4U, 0xbddc0fefbeabf8a9U,
  0x3d12204e3d8d1c3aU, 0x3e464b863e13ae19U, 0x3d036bd93e2f3c45U, 0x3e4a321c3b0592dbU,
  0xbd92f5173dd12cddU, 0x3d3d6a0dbdd33a24U, 0x3e29e088bca02e1fU, 0x3d841bb1be0bce94U,
  0x3e19be53bdc3351bU, 0x3d1a3c9a3d2d7b87U, 0x3e17b72bbced514fU, 0x3d9ef69ebdb177a0U,
  0xbd762cb3bc55c55fU, 0x3c920781bd1a3815U, 0x3d47041fbd787e6eU, 0x3dc005e0bea91dd3U,
  0x3de15534be381f89U, 0x3cd466bbbe83e39bU, 0x3dab911abe2e06c8U, 0x3de4da04be3286eeU,
  0x3d63a2a8be9bcc89U, 0xbde8583dbe99e131U, 0xbd846b3cbea00b3dU, 0xbdb4fd2cbde2b319U,
  0xbd8a0ac3be598251U, 0xbdc145d8be5a822eU, 0xbdf2458cbdfdcbf3U, 0xbd2ee873be477d67U,
  0xbe1c6cbbbe211271U, 0x3cdc5455bcc7ff09U, 0xbdd05323be272158U, 0xbe2ccb1ebe7cde56U,
  0x3e36a1113c396f46U, 0x3eb565ccbe226c20U, 0x3eb52598be89e065U, 0x3e488cdfbe4ed98eU,
  0x3e1aba62be402618U, 0x3e82e159be8a4ae9U, 0x3e8820483c309961U, 0x3e5d61e0bd878b48U,
  0x3e873134bd13852eU, 0xbd58fb70be0f11d7U, 0xbd8eeab63d2fb3bfU, 0xbdbe18d03de06425U,
  0xbe0fa751bdc340acU, 0xbe3753183e0dd1deU, 0xbed44063bcdbc196U, 0xbe8e12babdc771b7U,
  0xbe9cb6fc3d8d603fU, 0xbe06802bbd36c949U, 0xbd7691ab3dd8bf82U, 0xbd0d4dbe3e78444eU,
  0xbe2297a03e813a8bU, 0x3d3520483e7a44deU, 0xbe23321f3cb5ba9dU, 0x3c77ab393e1012ceU,
  0xbe3cbb2f3e0a0ebaU, 0x3cd31c3dbc87c5caU, 0xbd9a9b7fbde27b09U, 0xbe5169ebbda85ea9U,
  0xbd52eaa33d9ac854U, 0xbd695f863e38a8a8U, 0xbe082c733de4b2daU, 0x3dec39893e84b0d7U,
  0x3e8a8b893e3c5b57U, 0x3e077404bba80de7U, 0x3e0e96a2bce82e51U, 0x3e3e3cd9be198202U,
  0x3e414a49be79602aU, 0x3e91e75abe4d3948U, 0x3e90b843be4e7ffeU, 0x3ca0024cbe1fe82dU,
  0x3dc11016bd9f25b9U, 0x3ce06ee7be5f777bU, 0x3dd10437be024fe8U, 0xbd9fbfe4bc162216U,
  0xbe1e9008bda406e5U, 0xbe4eefcdbd2a3563U, 0xbe9320d63d100763U, 0xbd615d37bd8705c1U,
  0xbdd51ec1bd39c636U, 0xbe3db60c3dd842e0U, 0xbd6169723e47c38fU, 0x3d54edf73e705c8aU,
  0xbd8375ea3df57de8U, 0xbe0df2e53ea64778U, 0xbd4013043e9d7723U, 0xbd7c92373e0d474cU,
  0xbe3c7c853dee10aaU, 0xbe5004e33dd78896U, 0x3d9cdff53ba82154U, 0xbe3d68663e211e2eU,
  0x3cf3a146bdd01b35U, 0x3ce29ad53d3a4118U, 0x3e16c8283cd7435cU, 0x3dc57debbda0a37dU,
  0x3e1564aa3eac44b3U, 0x3e8363193e16a82eU, 0x3eb68ce73e95436bU, 0x3eb8d7483cda41afU,
  0x3e51bb3d3e4e96b5U, 0x3e4d57823df1dde2U, 0x3ec1017b3d539e26U, 0x3e23231e3e3a76feU,
  0x3e773e3f3d981336U, 0x3e024d1cbc3252f9U, 0x3d7858fe3d01b952U, 0x3db00b873e7cb333U,
  0x3e07eee63ddc8695U, 0x3dd3f8363e93026aU, 0x3a2c9b2f3dcf7e51U, 0x3b829a823e4d9ae3U,
  0x3e2db06f3e772253U, 0x3d2976743e69a457U, 0x3e7324933dc51e19U, 0x3d223385bd292bb8U,
  0x3d7a5a05bdc4bb1fU, 0x3e80fe7bbd5b9d4aU, 0x3e1c57f2bc5cf45bU, 0x3d3aad3e3d43a375U,
  0x3e44d4473dbe582aU, 0x3db58851bdd9e7e8U, 0x3dd9956b3e21d139U, 0xbd0981eb3e11c2d7U,
  0x3e7c63f33e189784U, 0x3e52defb3e28213bU, 0x3e731a463d9d0af4U, 0x3e6aa2c83dc76756U,
  0xbe1a77503dc32157U, 0xba9bf9213c8530baU, 0xbe41242b3e90801fU, 0xbe3320313e7e1f56U,
  0xbe57f0853e9ab379U, 0xbea1553d3d432344U, 0xbe6f3540be0ff1b9U, 0xbe4f1e73bdfc808aU,
  0xbe32aa5ebd490909U, 0x3d405dbabe8b4135U, 0x3e16f0aabeaf291dU, 0x3e5a8319beb8ad0eU,
  0x3eb736c6be8a8703U, 0x3ea8b66dbde4e914U, 0x3ef59f2cbda93fd5U, 0x3ed590593e06389fU,
  0x3ee295f43da49bc2U, 0x3ed198f53e6050d0U, 0x3eb373b93e0cf605U, 0x3e6b43533e381ae0U,
  0x3de6ad603c520c61U, 0x3d53d7f3be0f3e7dU, 0x3e82ec35bd27efb4U, 0x3e6519e4bd0b9d11U,
  0xbd275949bd94e47eU, 0x3d90c329ba952c46U, 0x3d47a735bd8b6582U, 0xbe30e60e3c0b7194U,
  0xbe50a1163c56c7aaU, 0xbe1196433b81c26aU, 0xbee4d8dfbc783db0U, 0xbedad9d63d74ed0cU,
  0xbedf4428bee0f8ebU, 0xbe3aa0eabed1e2a7U, 0xbe8f366cbe8ba03eU, 0xbd089b0ebf069f22U,
  0xbe20ae8fbee8ce25U, 0xbddf3c25bf162b2dU, 0x3e026a66bf1c23b5U, 0x3dec8475bf0d18b1U,
  0x3e15f767bf2d0478U, 0x3df2bc04bf148b2fU, 0xbdb43828bf08daceU, 0x3dd3f0f7bea2699aU,
  0x3e40be1abf02fcd2U, 0x3d48c65ebeacc234U, 0x3dc57e40bea6a243U, 0xbb80d4f2be39ab1dU,
  0x3e47082fbe4ae451U, 0x3e4df7f8be0594c3U, 0x3e4d8b02bea5774aU, 0x3d5cb1b0be3587aeU,
  0x3e88ce1fbe13beaaU, 0x3d2a755ebdd8dc41U, 0x3d99237abe179edaU, 0x3e114ca8be53c122U,
  0x3e512d31bd850597U, 0x3df0ef463d444cf1U, 0xbccf36333d7210feU, 0x3d4ad70f3db350adU,
  0x3d83e858bc8938a5U, 0xbe0c0e6ebe332233U, 0xbe18a02fbdd9a801U, 0xbd1e60a9be83ca4cU,
  0x3e1a6aa13e4bd5efU, 0x3e3b7d473e90efb6U, 0x3dfa9bbd3dbe7a4eU, 0x3daa06063e8e87f3U,
  0x3dbbc7ef3ea72853U, 0x3df3d4783e741e1bU, 0x3de761f73e892d31U, 0x3e6f848d3ec852d4U,
  0x3e482c8f3e193503U, 0xbdad540d3daca33bU, 0xbcc54a7d3e762062U, 0x3db92a5e3c9a4ed4U,
  0x3df198b43e0f77c4U, 0xbca906a73d30a830U, 0xbd9d8cd8bdee3e53U, 0xbe078307be03ef34U,
  0x3d6001aebe170622U, 0xbdfc87f13d8adc5cU, 0x3d643a81bbb08613U, 0xbe345397bca97eadU,
  0x3de007b63e6883bfU, 0x3e0820e73d2b9cc7U, 0xbc207bd83de44fc1U, 0x3c4db5af3e9b2682U,
  0x3db1bdad3e878a8eU, 0x3cb4a6063ea61ddbU, 0x3d9c4bb23ecb69c4U, 0x3d8711e93ee2340fU,
  0x3e29820e3e4057b2U, 0x3dbbeb2c3e92789bU, 0x3e601bff3e4674bfU, 0x3e093fbc3e9a1e52U,
  0x3e200b0d3f0c9079U, 0xbde89c713e56f89fU, 0xbdd580933e98d1caU, 0xbd8c83303dc9229cU,
  0xbe6f288abe361375U, 0xbe9cb6eebe61629dU, 0xbe659e9ebebe93e8U, 0xbe341f2fbec97e93U,
  0xbe22f4c5be120305U, 0xbdcba05dbea4e85cU, 0x3d3d713dbdead58aU, 0x3d001c85bd432e5cU,
  0x3da929603dfb549bU, 0x3dd8cc82bc860243U, 0x3df39c8a3dad3e88U, 0x3dc729503daa6519U,
  0x3dc170863de53915U, 0x3d976ffd3e8b262dU, 0xbc7726113e44776fU, 0x3d770aa73e729a5bU,
  0xbd8d147e3dd59be4U, 0xbd8876dc3e450f7fU, 0xbdb81f883e4a0e29U, 0x3d887b203e337991U,
  0xbdb380453e15b02dU, 0xbdfdc0c8bcd23f64U, 0xbd3ca6253bc1e3dcU, 0xbdae2fe9bcec58feU,
  0xbd2684b63d39f88fU, 0x3c4a0b7bbb2e3554U, 0xbdb5f2b23e114c85U, 0xbe4a4e39be0aa97dU,
  0xbe09c9793dbf9ed7U, 0xbe737be23e31f949U, 0xbe294eddbc30e492U, 0x3d1896d53c1fe34aU,
  0x3c0ef93abe6c39deU, 0xbc1ece97bd67163dU, 0x3e26fc4ebe1f6ccbU, 0xbd2bb516be46d0c8U,
  0xbd959234be0fde22U, 0xbc64d981bd41ea96U, 0x3ba617b8bd2831f5U, 0xbd0aa05abda90882U,
  0xbd17a0dabd1c72bdU, 0x3e63c6a03e10e254U, 0x3e5415df3df85c14U, 0x3e64b0ef3d009713U,
  0x3de3ff913c903b77U, 0x3e4ef4ee3d35a586U, 0x3e9f79223de3880aU, 0x3ddecfbbbb96805fU,
  0x3d4c72303e5a2636U, 0x3d8474d23e5033a5U, 0x3cac49543dd6fe33U, 0xbd7bafd53e1564c8U,
  0xbe373caa3d68bbe8U, 0xbde07f1b3e580c34U, 0xbe019ff73e64032eU, 0xbe26bdc93e4fa6bcU,
  0xbe51e7f13e64aa63U, 0xbd055aa93cae1e19U, 0xbe256df93ca4c633U, 0xbea237193d664c26U,
  0x3a5b32bebe5711d8U, 0x3e1ff62dbed0601aU, 0x3e87a4f4be8f4eceU, 0x3d5415b0be8df2efU,
  0x3e120c5ebecf05faU, 0x3dedf2b7be793c1cU, 0x3de26386be92e576U, 0x3d009e05be8cd665U,
  0x3e41aa5fbda87e95U, 0x3e695632be773b9fU, 0x3a1a1b42be43a09eU, 0x3e19103bbe300046U,
  0x3dbeb4d0be6d5597U, 0x3e86226abe87fb5aU, 0x3e04e56bbe441dbdU, 0x3e86c4debe051154U,
  0x3df00f7dbe0f7660U, 0x3e78b70dbe81b9b2U, 0x3d712575be6ee023U, 0x3e52f099bc062b79U,
  0x3e352baabe2a90acU, 0x3e3d4b36bdc7078cU, 0x3d513624be3b63e2U, 0x3da4e3f03abd9b9dU,
  0x3e58d1dcbe3a924aU, 0x3de92ab23d2ad354U, 0x3e306b233d5fbf12U, 0x3d895d96bc2b8f9dU,
  0xbcdbb38abe45a8aaU, 0x3dfe4408be36c8a9U, 0x3ddb44d4be11212dU, 0xbe053c6ebd9dad0aU,
  0xbdef832abebe9870U, 0xbe5139a0be428879U, 0xbccd4d19bd9a51f5U, 0x3d8560a93c7a019fU,
  0xbe3120af3e1e8ac8U, 0xbdafc0c4bcfaf840U, 0x3d3f779cbce09896U, 0x3d6c3811bcf93205U,
  0xbe1f2b873cd9e51cU, 0xbd4be3163d8f55dbU, 0x3df07cd6bdee7191U, 0x3e03a881be1d3041U,
  0x3df49b9e3dc60b1eU, 0x3e1797ec3e0fb7c2U, 0x3e5993a03d70fa48U, 0x3db37bca3ca70853U,
  0x3e5be6953c859e8eU, 0x3e07faa5bd22789bU, 0x3e5524833c9cc06cU, 0x3d8f73bc3d9606aaU,
  0xbd0a5179be2ad2b8U, 0x3e6ca8dfbe4cfa57U, 0x3e523c36bdeb08deU, 0x3e3b9e4cbdcb9e59U,
  0x3de9ffa7be31a3f5U, 0x3e922fbcbe173c2cU, 0x3d713906bd9b8c24U, 0x3de76336be521f9fU,
  0x3da84d74be28d6cfU, 0x3e3c4150be0fd20fU, 0xbcae9dbcbeb4dfa1U, 0x3d3ce0b4bea587ceU,
  0xbc319d56bf1be55fU, 0x3d82fec1bec91b10U, 0x3c62939abe2ef4c6U, 0x3e7a0ba0be84a6ebU,
  0x3d4817f0bd9fbc63U, 0x3e83967a3b4e701aU, 0x3e8346933d9ae4e6U, 0x3e7b5eb5bdf1a974U,
  0x3e6606e1bda2ddf2U, 0x3eb819e0be38dcb3U, 0x3e98ca3ebe0a92fbU, 0x3b9bb368be4da61fU,
  0x3cf62dc3bda49b42U, 0x3e0af0ffbd73c0deU, 0xbc43ed89bcc21a78U, 0xbdd67446bd807a2bU,
  0xbd87d0df3e2e98bdU, 0x3e333b7e3e63e563U, 0x3cb54bee3e2e3d54U, 0x3e4d6ec8bd414cb6U,
  0x3e51583c3d0823c3U, 0x3e803870bc80854fU, 0x3e17b2e23d88f9b6U, 0x3e3d0b043e11cfe9U,
  0x3e869f58bc387442U, 0x3e106f6b3b7b2d7bU, 0x3e99a6cdbe031a0bU, 0x3de53f92bcd83bd0U,
  0x3e405054be2933c4U, 0x3d1d452bbe8f0db0U, 0xbe658fcbbe625b83U, 0xbea6b304be67f236U,
  0xbdf766563e8e08e8U, 0xbcd2f6d13e730274U, 0xbe976cb93eaafa7cU, 0xbe2e496b3e9a82cdU,
  0xbedbe4903e92cd97U, 0xbeaaa8ec3eed7149U, 0xbed1d5c23ed525a1U, 0xbed4c9fd3efcab6aU,
  0xbe01fe0f3eeac396U, 0xbea0d13a3e952359U, 0xbe30f7483ea0a2a2U, 0xbd6b4b373de374e8U,
  0xbd8971a7bdbb7345U, 0xbc937be53c154d19U, 0x3c35517cbe82c95cU, 0xbdd6f1d1bd344d5dU,
  0xbdb991e6be177f4eU, 0xbe02a5b5be81e672U, 0xbe5dfd6abde2b2aeU, 0xbea572793dd14843U,
  0xbeb4c433ba8b0d87U, 0xbe6463453e410dd7U, 0xbe79df823d01cdaaU, 0xbe5024a03de25a03U,
  0xbe6025843e39ed6dU, 0xbd32a6d3bcda8072U, 0xbd04b1403d25d7edU, 0xbe13b05e3e4963bfU,
  0xbcbb06cd3e3c8bc4U, 0x3bca436e3cda0df7U, 0x3d180f5c3cda1650U, 0xbdb6a2573d3d6fecU,
  0x3e8cde6e3f5e76a1U, 0xbc24e8e73f4636f3U, 0x3cbaeaac3eecc628U, 0xbdcb469b3e87b672U,
  0xbe02d98a3e8bf1d5U, 0xbe66257a3c85778bU, 0xbe30a9c03d138206U, 0xbe9b7c56be3240ddU,
  0xbe3dc20abe9420b8U, 0xbe900c94be92b266U, 0xbe81ef36bc827c3cU, 0xbe22a4f3be3f205eU,
  0xbe39b977be58f933U, 0xbe4a4f8bbe26ec3aU, 0xbe08b982bcaf9219U, 0xbe384b7abe157959U,
  0xbdba8d733d8f392bU, 0xbd0432843db4063dU, 0x3da850e4bdb8212bU, 0x3e58820cbda17290U,
  0x3e79ee8fbd4dc123U, 0x3da63ebe3ddf4fdeU, 0x3da754a53e1d26d7U, 0x3e808112bd0534c1U,
  0x3e575a573d24456fU, 0x3e3022833d037277U, 0x3c6f482a3e1af412U, 0x3e4196b53df182d6U,
  0x3d59a6f93db297ffU, 0x3cfc80ee3cdd08b3U, 0xbda06ecdbe014f6dU, 0xbe2f40fdbb1ffbc2U,
  0x3d0d4e0f3ee3d3beU, 0xba47fb653e9431c4U, 0xbe0d696b3e7a484bU, 0xbe52d52f3d664d8bU,
  0xbe20e9ae3d7d7379U, 0xbc50d951bbca2853U, 0xbd01889bbe47b33cU, 0xbcd0cb0dbdcf85b3U,
  0x3d0b7ba0be3490faU, 0xbdcba316be5844cbU, 0xbcdd4d3bbdab5712U, 0xbe08b9ab3d373962U,
  0xbdd408a53e82c1c5U, 0xbe57f7873e4cbf1fU, 0x3c3705fc3e98b06fU, 0xbc68a2d53e4a1889U,
  0xbdcc77583cb850b8U, 0xbdc9dbbf3e3d5866U, 0xbb9640583e4886e2U, 0x3e94d9b93d5885a0U,
  0x3d9c7df03d5bc2a8U, 0x3d711b9abd4c12faU, 0x3df0a47fbe1f431aU, 0x3dedc176bd8d4054U,
  0x3e63718d3e5a48b9U, 0x3dca97d93d8d9be6U, 0x3c8cc0b03e4f429aU, 0x3d0b623c3cb69a6cU,
  0x3d59e5333d46c698U, 0xbd4cfa6f3e0b99abU, 0xbddc3d663d9454deU, 0xbcafa07cbe143c8aU,
  0xbe8293b3bd97e886U, 0xbe9ecf0cbe9f3270U, 0xbe9c89f5bd6d7b5cU, 0xbe41b132bd84f920U,
  0xbd799d36be2757d3U, 0xbdc10497bd65dd44U, 0xbe4fa1b4be3d3aa8U, 0xbe0cf651bcda363bU,
  0xbd889361be47faa6U, 0xbdc94c5ebdafdd32U, 0x3e0873623c3f1d1cU, 0x3dacf80fbdef4828U,
  0x3d42dc773c2d4d89U, 0xbdb871d13d18639eU, 0x3d6b1bd63d79a3ccU, 0xbcc4cf03bd60985eU,
  0xbd63bd4ebda114d7U, 0xbce0a690bd765574U, 0x3dbc8b7bbd5b17c4U, 0xbe056b563dcd95c1U,
  0x3d11dbf33d37f7e3U, 0xbe9144e13bd8c166U, 0xbe6f5f5b3e1cd81cU, 0xbe83f6e83d81fbb1U,
  0xbe5b8f1a3d764e96U, 0xbec547be3e16c8edU, 0xbee1d3623e888461U, 0xbef92eba3d713fcaU,
  0xbf0e68313def8e3cU, 0xbf2ef4343e3a0eecU, 0xbf2a840b3de70de8U, 0xbf257afb3e8c7328U,
  0xbebf08b6ba1a5eb0U, 0xbeb91de83e065c7bU, 0xbf0929c13d9e882eU, 0xbed18a9fbd81be5eU,
  0xbf2188a0bb929312U, 0xbf17ade7bc4c719cU, 0xbeac8bb73cff5b03U, 0xbee0811f3a8cca21U,
  0xbefac6193d48b290U, 0xbe93f6fd3d0e45c6U, 0xbe6f02463dd5f158U, 0xbe5bf0743e2e925eU,
  0xbdd8ef7f3d87c5a2U, 0x3c2987423e439a67U, 0x3e031e0a3e71478aU, 0x3de04db43e8c3282U,
  0x3d19089f3e441e4dU, 0x3e0744543e095aa2U, 0x3e4d52083e830dc9U, 0x3e82c7fc3e68bfb7U,
  0x3e7c44a83e3c9a80U, 0x3d2584aebc9edeaaU, 0xbc2dc26c3df0bdd2U, 0x3e3963453e30c9b3U,
  0x3e20cb1a3e72c087U, 0x3e321af73e6b77b7U, 0x3ddd1ee63e101352U, 0x3d74e654bb755a80U,
  0x3ccddf4e3e119d96U, 0xbdfc16b5bd7b0f22U, 0x3e0d5d48bcb9899bU, 0x3d4e79f5bd5c2380U,
  0x3e607c793da29ecaU, 0x3dcbbda5baf11da0U, 0xbcdfc7123d4efa02U, 0x3c94f2ea3cef0094U,
  0xbe0d8a543e35dd90U, 0x3d800a463d84d491U, 0x3d65f0423e2d9c38U, 0xbdddb9253e6c4954U,
  0xbb092dee3cdc79ccU, 0xbd4fdfb5bc6668a1U, 0xbe55a8563cc2791cU, 0xbe115b9abd5e6b16U,
  0xbd98d234be4784f2U, 0xbd882416be9fa88fU, 0xbe89a1e9be514b8fU, 0xbe0e7bbfbe806598U,
  0xbe60228dbeb2b0c6U, 0xbbf409bcbe801b4aU, 0xbd96f697bc17d08dU, 0x3d163c6bbe34f4feU,
  0x3df73cb6bde35b05U, 0x3e6c57733e4b5612U, 0xbc87f3adbcc436ceU, 0x3e27e3443e9302d4U,
  0x3cdf06c33e595c6bU, 0xbe0973203eb732cfU, 0xbda26c003eacd2ddU, 0xbe2ca0813eaa4101U,
  0x3c1446003e9b786eU, 0x3ca619ef3cab2c1dU, 0xbe3697103e191e17U, 0xbe5edb8c3df100a3U,
  0xbe7e5660be01617fU, 0xbe228550bdfaafa1U, 0xbe80b0593be6eaa2U, 0xbeb306fe3d21a297U,
  0xbeb1c475be20baa0U, 0xbea8a517bd0636f5U, 0xbe4cc62ebd759ea8U, 0xbe1773c6bddad0edU,
  0xbd8a53cfbe2c00faU, 0xbe1756d3bd71ee7fU, 0xbe65f88bbd6c0ff5U, 0xbe614ab4bdc4ea44U,
  0xbde3baeebd8df77cU, 0xbd97207ebdff1f62U, 0xbd8f6624bd1c04e2U, 0xbc7d5fbabc817b33U,
  0x3bcb82ecbe11a0f5U, 0xbd08bf66be50fe33U, 0xbdbbbca7bd4d5459U, 0xbcc31817be546502U,
  0xbe41d77bbe6188adU, 0xbe3421aabd522521U, 0x3c0821ad3d1959c9U, 0xbd92d8a6bdd3d678U,
  0xbe17c533be65e708U, 0xbe8954b83c057ecdU, 0xbe986527be291625U, 0xbe93e5143bab818dU,
  0xbd5a1e48be344f85U, 0xbe96578dbe136474U, 0xbe8ccc36be00feb2U, 0xbe6bc715bc347a43U,
  0x3e9647453e946ff3U, 0x3ce72f153de16a08U, 0x3e4ed5d43e2270b9U, 0xbcb416623b96ce69U,
  0xbd135c00bcd77519U, 0x3e38ba87be9d72bfU, 0x3e822db0beda0319U, 0x3e9e73f7bec801b5U,
  0x3de60d6fbeddf557U, 0x3e20d06bbefe2398U, 0x3dedde68bea47349U, 0x3e1904b3be8df429U,
  0xbe0d439cbec90130U, 0x3b0f886dbe6a4683U, 0xbe38db1ebc1f0922U, 0xbe5f7360bc072076U,
  0xbd1cff49bd19498eU, 0x3db58b0e3e2c2f33U, 0x3d14b29b3d3c90c9U, 0x3dd9a5083e810c7cU,
  0x3d527d123e85bfbdU, 0xbe156b123e419d1dU, 0x3dcae79c3eae0403U, 0xbd01fd0e3e2e7c57U,
  0x3e1979eb3ea60a5fU, 0x3d0755683da38855U, 0x3e11673b3e2307bbU, 0x3da82a383dc7b28dU,
  0xbd3ca7b7bdd3ccdfU, 0x3e1dff62be9bc308U, 0x3d91d9f0bebed322U, 0x3dc85bf7bf0d617cU,
  0x3e326f3ebdd706a6U, 0x3e305285bd41e3f6U, 0x3d083cdb3d9c1878U, 0x3dd0d3443d850ad9U,
  0x3da509e7b953d277U, 0x3e03a70e3d32a53eU, 0x3da2e8db3c143c83U, 0x3d3f0f053dec8f7bU,
  0x3e4eb2db3d1d38beU, 0x3d875a3ebcecbd46U, 0x3b80977f3b496df4U, 0x3d4dd6c73cd34c02U,
  0xbe485145bdd02fb5U, 0xbd4f2e19bd9fd255U, 0xbe0b5d5a3dfc7921U, 0xbc87ae74bdb29b46U,
  0xbe6d54dfbd15ee30U, 0xbc01e3923e058275U, 0xbcc471883dff184fU, 0x3dc9b19b3dade925U,
  0x3d996998bd678699U, 0xbd739fb43d61491bU, 0x3e18e0573e248bb3U, 0x3db5833e3dc2d42aU,
  0x3d14c9303deadd1aU, 0x3bc87d983dfbbbb0U, 0x3b9d27b13dd01894U, 0x3e89e1913ddc40f1U,
  0x3e13dfe83d46b4daU, 0x3e8b1bd2be076079U, 0x3e14a1cebe054d4cU, 0x3e2e6b0bbe415810U,
  0x3d9f5a25bdd8089aU, 0x3ce9c459bd02f2c9U, 0x3c172675bdd3bb2bU, 0x3d851dc83d6f62a0U,
  0xbdbe03e73e95621fU, 0xbe4dd1733e88e468U, 0xbe667f723e30b327U, 0xbe2478093ec18b5eU,
  0xbdfade363e4f3b1dU, 0xbe6378cc3db4874eU, 0xbddd47d83e77908eU, 0x3dd76c19bdb3de77U,
  0xbdef1ba9be1d91dbU, 0xbd76b4bdbe88e2b8U, 0x3d952fe9be5d1a1cU, 0xbdfb5369beb5aa20U,
  0xbd78161bbea6fc99U, 0xbd1c7317be6aafb0U, 0x3d9d172ebdeaa4abU, 0x3cc8d750be114459U,
  0xbd5cbafebe200638U, 0xbe148d0f3d86e030U, 0xbde6e76a3cbb13d5U, 0x3d8b45483e2fc6e3U,
  0x3d74f7db3e318520U, 0x3db45ec33c1799f1U, 0xbc8a1f9ebd28b109U, 0x3df8fbd23d85da25U,
  0x3e2b5a44ba8c8058U, 0x3ca6e5fc3e0b53c9U, 0x3da18c2fbe1df5daU, 0x3e1a8110be3a04efU,
  0x3e95fd0bbcb87536U, 0x3e2cb735be55dcbaU, 0x3e90852a3d0b003dU, 0x3db2c7d13b8f5513U,
  0xbb98e1813cb7742aU, 0x3e1124463ea15759U, 0x3db5c8b63e9ce502U, 0xbd4a6b013e909655U,
  0xbd4e2c2d3e8d4615U, 0xbe4c121c3e82783eU, 0xbdfffa933e75eb85U, 0xbe543b683e428dd6U,
  0x3c21fd553e0b0bbfU, 0xbe06ffbf3e021332U, 0xbe55c2eb3dc91068U, 0xbe2176b43d781d24U,
  0xbdecf0873da0e973U, 0xbcf5d66cbdeafb66U, 0x3e29becc3bb474eaU, 0x3e57d4f2be2419acU,
  0x3dbd653abcd68207U, 0x3e5084a3be594f27U, 0x3e96c8ebbca73b89U, 0x3e8c6f0cbe815ea3U,
  0x3e4d51c8bd1fe016U, 0xbd951900bddd1a80U, 0x3e0d04cbbd80d94aU, 0xbe1c30debd52cddaU,
  0xbdd447793d4168b9U, 0xbe8203e23e1d0ab4U, 0xbe96451f3ead022eU, 0xbe761b9d3e88c96bU,
  0x3dd42b43bd8f800eU, 0x3eaa6fc7be4c84f1U, 0x3e987a97bd819fd5U, 0x3cc031743dfee981U,
  0x3e23611d3e723e14U, 0x3deecf823e81244aU, 0x3dfca3fa3e9d2fd2U, 0x3e10bfbd3ec65014U,
  0x3d7d8bc43e265e96U, 0x3db0efc63ea6b31cU, 0xbd17536e3e906e84U, 0xbe4b59043e0bb495U,
  0xbdcc45713dc20b7aU, 0xbd80cbb23e1d5b3aU, 0xbdb21b14bb6e2201U, 0xbde88d313e25b750U,
  0xbdd53cff3e163400U, 0xbdb5f9f23ddd15f9U, 0x3ddd6c56be1f8afcU, 0x3dbc48ecbe1950c7U,
  0x3e5493ccbcd6b750U, 0x3d24329dbe042a68U, 0x3e2a3b7bbe81e4d9U, 0xbc8c481ebdebe70cU,
  0x3cba458ebe96ff96U, 0x3d8988bbbe52f7c5U, 0xbd7845febda02f0aU, 0xbe27b211be1a59e5U,
  0xbe297ea43d4561a4U, 0xbe524eac3dd4fdf2U, 0xbe4c0eec3eaf56a7U, 0xbeab86353ec20e09U,
  0x3c730d113dd227feU, 0x3e1490fe3c938ff7U, 0xbda6d2a83b39b09fU, 0x3df282d83d72c6d3U,
  0xbcf6c37dbce0f946U, 0x3e1413dbbd4fb6faU, 0x3e3e1b3cbe248058U, 0x3e748f8a3d0f52e9U,
  0x3e8324fa3b9dcdd8U, 0x3d39dcfdbe56583eU, 0x3e59c6c1be2cc4adU, 0x3e3d9d36be5d89eaU,
  0x3ccf8d43be0606d6U, 0x3cb44fe7be606acbU, 0x3e7e20cdbe5ebd44U, 0x3e07f4debe3491b9U,
  0x3dbd71da3cc87942U, 0x3d32dcdabe5d8735U, 0x3e8176f1be6850b1U, 0x3d98fc233d672057U,
  0x3e298d00be3450d3U, 0x3e39d457bd37352cU, 0x3dccbee7bd861bd5U, 0x3dfb54abbcfd2d05U,
  0x3caf6d57be05c6d2U, 0x3e5912293d807feaU, 0xbc8d574dbd86e1efU, 0x3dcf68e83d580c1eU,
  0x3db37d993d0d4849U, 0x3e3348673e76fb05U, 0x3cc5f46e3e35d6f4U, 0x3e3b46363e0a9bd9U,
  0x3e5b18803d94fc08U, 0x3d3a24d53e2a5e41U, 0x3e5febce3d65ae5eU, 0x3e57bad5bda365eaU,
  0x3e264a0bbe5d0d74U, 0x3e5733c9be1800a3U, 0x3e74b5c2bceb7303U, 0x3c85db66be6fbeacU,
  0x3de8aeb8bd0bb5fbU, 0xbd38dc473cad2b78U, 0xbcb3c6753e78bf9fU, 0x3cfa74783e62a7a0U,
  0xbdd81d2d3e693257U, 0x3ded39bd3e0e1658U, 0xbd9083b33e39f29cU, 0x3d90f39d3e23d2ffU,
  0x3d74d8143e497ad2U, 0x3db735453e157ed3U, 0x3e61ae383e893814U, 0x3b6a4f933d90384eU,
  0xbcf261e93ddfba13U, 0xbce300573e3c4569U, 0xbdfb6f833ec447e1U, 0xbe270a0d3ec3259aU,
  0xbd2209373e9a3d27U, 0xbddbe8e43ea1df6cU, 0xbe99a75b3e398358U, 0xbea0fab43e6ff603U,
  0xbe4644783dbe8d74U, 0xbe15c1a03e32565cU, 0xbe536d3e3db7aa12U, 0xbec8d188bc01e448U,
  0xbd6bebc2bda92e8fU, 0xbd3f23423e3c8909U, 0x3d5818bfbd9e49ebU, 0x3d9e9eae3d97978dU,
  0x3e3e58c83e3354d1U, 0x3daeae003dd7eed2U, 0x3e7bad52394e2d6aU, 0x3e94049a3e3c740dU,
  0x3ea79b673e132015U, 0x3e9bdf8c3cba3c54U, 0x3ebe1270b9ea6e58U, 0x3de3988f3dccd3c6U,
  0x3e540124be06d641U, 0x3e150e2dbce849c1U, 0x3d751a0fbe1fd981U, 0x3da3170dbea6ad7dU,
  0xbcc2287ebe43b307U, 0xbd60b8b9be93d24aU, 0xbdf3a734bea6ecabU, 0xbe6cc48dbeb3fb66U,
  0xbe21e201be463048U, 0xbe80f1dbbe8bcb49U, 0xbea1f493bde532e4U, 0xbe8e4a79bdf1024eU,
  0xbe8465023e566778U, 0xbe1b62893cb6ab31U, 0xbe596fa03e3a7689U, 0xbe03f8853d9dd022U,
  0xbe5e3bc63be43edeU, 0x3b6a77ba3cc49030U, 0x3d334c7fbdc8fd90U, 0xbe0e7741bd1adfccU,
  0x3e240a35be23a397U, 0x3dbd17f9bd0a13bcU, 0x3e1e545ebc66e301U, 0xbdbd5da2be80c7d9U,
  0xbc3529ddbe38a299U, 0xbc97f9e0bd840d1fU, 0x3d960e2dbe7a9123U, 0x3c02efcfbd91344cU,
  0xbbad7619be40bc28U, 0xbd3245a6be777a3eU, 0x3dc3a14abe5faa01U, 0x3dcb7be5be3880a1U,
  0xbbddd996be156266U, 0x3e244cacbe1af0a8U, 0x3e5ed825be419749U, 0x3d411722be9f5fc6U,
  0x3e4c0c99beac7d6cU, 0xbbb76376be1f581cU, 0x3d9f64aabdba69fbU, 0x3e1c98a2bdeaea4aU,
  0xbc4f915bbe90affeU, 0x3d22d83fbe1736abU, 0x3e55f392be555c1aU, 0xbc826369be8fbd82U,
  0xbb9a4d12be8d4489U, 0x3dc9ce4bbd527557U, 0xbc251e04bdcfebebU, 0x3ca960e9be789722U,
  0xbd480bb7be0a4723U, 0x3dedb636be9108f9U, 0xbdbc1ac2bdfdd4f9U, 0xbddad5f0be434611U,
  0x3ecb03f83e29d905U, 0x3edb46e33e69b995U, 0x3e92008a3d21bf2aU, 0x3c32ad3dbda3d506U,
  0xbd9a31fbbcb7e4e4U, 0x3dc142edbd78420cU, 0x3e0ce6d6bd67ab29U, 0xbc38b53dbd909ae0U,
  0x3d0ffbf2bd75bb6eU, 0xbd0e1cecbda5b47eU, 0x3dbfac65be8f09cfU, 0x3e08903dbec3e15eU,
  0x3e600c92beaa441aU, 0x3e9a4271becc8525U, 0x3e69b27fbeeb07a5U, 0x3e4fba14beaf78e1U,
  0x3d8ace3dbf10d4ceU, 0x3e055bbcbec0e569U, 0x3e3e139dbee7098bU, 0x3de55ff2be3e48dcU,
  0x3e9a080bbe93e3a9U, 0x3e218986be5b9ff6U, 0x3e9a677dbe28d3f2U, 0x3dceb09ebe30be1bU,
  0x3e301c9cbe41794bU, 0x3dafdf27be0ec13aU, 0x3e66a4d73e10f4f5U, 0x3c8a39c23e4a6e59U,
  0x3e05ab223e052608U, 0xbd48c6f23d8dde24U, 0xbe02f7883e842d3aU, 0xbd78ef3d3e502d3cU,
  0xbeefc873be1e64a8U, 0xbdc6110cbdb1057fU, 0xbe026bf4be4266cfU, 0x3c7aeb14be756a60U,
  0xbdc3d3e4be71e76aU, 0x3d0ccf86be36f62bU, 0x3e08bdb1be56b65bU, 0xbc8c961cbc0e0fbfU,
  0x3db81a58be1ce7fdU, 0x3da9cdac3e3e225bU, 0x3d9353c33e570a6fU, 0x3e6ab40a3e02b894U,
  0x3ea3bde83ec455b4U, 0x3e7d9d803ea43336U, 0x3e919f123e5b6f71U, 0x3e5a1bf83efb539dU,
  0x3e69c0183ed8475fU, 0x3e3837733e6b2afaU, 0x3e45e1253e94dcfcU, 0x3ea9b3fb3d768359U,
  0x3e9694dd3d4883adU, 0x3e95cf5cba0b286dU, 0x3df1561a3c9b3175U, 0x3e41d2a0bce3b7a5U,
  0x3d01edacbe389e41U, 0x3aabbababe15293aU, 0xbc3e8e75ba84f8e3U, 0xbe61cbaabe07197dU,
  0xbe177d01bc8ec8eaU, 0xbea6ad513d5ac01bU, 0xbe67eb433df89bc6U, 0xbefcb70f3d64e20eU,
  0xbef4fad53de6e7d4U, 0xbf13afa73e5b0303U, 0xbf01bb893df6dfe9U, 0xbebb14393d417eabU,
  0xbe8a8cfd3da52adaU, 0xbeb58ea7bdb7e048U, 0xbe91d675bdbd5d8bU, 0xbe8a1d0e3dc5d02cU,
  0xbe303bd33da4cd4bU, 0x3d8e5d42be262815U, 0xbda93eb0bcc91d23U, 0xbcd5becbba253bceU,
  0xbd46735d3d8ca9bbU, 0x3d9278623c3bdf7bU, 0x3dfd61ce3da5c210U, 0x3e0629adbc0d51a7U,
  0xbd8a057abd307b3eU, 0xbd35d0b2bdee35c9U, 0xbe20de11be2e93b1U, 0xbd5860cfbbe346faU,
  0x3d3c786c3807260cU, 0xbdb2bb12bd059ca0U, 0xbdaf30d33daf4b3fU, 0xbd071c65be33c5a7U,
  0xbca2a8823d86d296U, 0xbe04405cbe13be63U, 0xbe3dd2c83d92ed71U, 0x3caf32a4be084cecU,
  0xbd8bde10bc47783fU, 0xbc2223423d87785cU, 0xbdaa26303db8b643U, 0xbd09992b3c9d25dfU,
  0xbee6038abc71736dU, 0xbe70cc7bbe382884U, 0xbe6f699d3d2fa06cU, 0xbec459a53e0f5905U,
  0xbea976fdbd80ff38U, 0xbe745936bd892d9bU, 0xbebcaa0d3dbb09dcU, 0xbe011556bb99d020U,
  0xbdbc97f23e011908U, 0xbdc710e73db263efU, 0x3e0ddd243d9f44b5U, 0x3df7370e3eb29600U,
  0x3e91715e3eadaedcU, 0x3e27673c3eb6b17fU, 0x3e81c27d3ecdd80aU, 0x3e81a1413e30a054U,
  0x3e97bd083e02e0eaU, 0x3e6a942f3e4732e5U, 0xbd06eec33db70a9fU, 0x3cbc34223deff77cU,
  0x3e4b8013bdee2c21U, 0x3bc06a88bdd4b8b8U, 0xbca16cf0be2512c4U, 0x3e47ff7fbe14c51bU,
  0x3e2306e4bde5fa29U, 0x3d630fbb3b21b844U, 0x3d8a1f5dbdc57669U, 0x3d788c44bb3ab102U,
  0xbe4c5311be163d38U, 0xbea2ca803b8cf8c8U, 0xbed1aed33b6fe61aU, 0xbedda82e3bf312feU,
  0xbe0111debf49eab6U, 0xbc43d935bf0a6263U, 0x3d848a66bed4ca9aU, 0xbded8276bd8b6007U,
  0xbe248b98be033223U, 0xbd8527023e8ac1d5U, 0xbdd773da3e84aa9cU, 0xbdbb56783ebc9f2aU,
  0x3cf663e23eb0071bU, 0xbb6e26d13ddc0678U, 0x3dc7873a3e998125U, 0x3e97dd5e3e645bdfU,
  0x3e7d16e03de4fa6fU, 0x3e7199e53d151c57U, 0x3ee111b93e2ee9beU, 0x3e483f043e1ff1c1U,
  0x3ea977c4be3387f5U, 0x3e3c23f2bd8242e2U, 0x3e655e91bdd861c9U, 0xbd4da79ebe681dafU,
  0x3e490bf5be93ec9aU, 0xbd6121adbe6a4eedU, 0xbd492ac6be80f704U, 0x3e0ae021bdc30b7cU,
  0x3e0a1e7cbe1988c4U, 0x3e5c93883cfc59dfU, 0xbd6e3a9abe3bc019U, 0xbce3101fbe2c4a80U,
  0xbba7d879be07b484U, 0x3d74a34b3c915fa0U, 0x3e2525ad3da13bd6U, 0x3db237e83ded727bU,
  0x390b7a32be9702b1U, 0x3db28968be70a59dU, 0x3d037af8be9de0fcU, 0x3e2ebbd6be88387dU,
  0x3e138fbebed8d7c7U, 0x3dd1eaedbed7c5ddU, 0x3e1fb745be7dfe3bU, 0x3d1b0386bebc4646U,
  0x3e71515ebe853ce3U, 0xbce7e265be3bdd78U, 0x3dc9f507bd6c9bc4U, 0x3e6c30083de3fa8bU,
  0x3e459b73bd0a47d6U, 0x3d1aa07a3db69cc0U, 0x3db9aece3e98e494U, 0x3e5dc7043db8c222U,
  0x3e8dd4723ea3e433U, 0x3dc3967e3db7a0c1U, 0x3e94d2fc3e471eebU, 0x3d813aca3e9e6c2fU,
  0x3e7d47653e62c8c3U, 0xbc332bce3dc1509eU, 0xbd37b7fb3e0c71d4U, 0xbdba3c9a3dadebb9U,
  0xbdc78b99bda64611U, 0xbe110089bc965e73U, 0xbe350ada3dbac6c8U, 0xbe3e5506be160454U,
  0xbe2170f3bceac34eU, 0xbe6d40e8bc5f93c3U, 0xbe8817ddbe245abcU, 0xbe3f363cbe58f0c0U,
  0x3d4104153e69dfa4U, 0x3dc09ec63eb10292U, 0x3d3b699c3e25b488U, 0xbcd4de1a3e3d42dbU,
  0xbd56d4c03deeb3f5U, 0x3d4f0e833d55daa7U, 0x3cccb546bd6dfd98U, 0xbda52ea4bde30471U,
  0xbd2e231ebe5222deU, 0x3d1a93dfbe683564U, 0x3dc53d6dbe3db8dbU, 0x3de8ff3bbe3a9f4bU,
  0xbd6c6594be94f120U, 0xbdbefc21be637251U, 0xbb85656ebe95743fU, 0x3de2a4abbe529cd6U,
  0xbdbb2669be2b0a3eU, 0xbdb31a29be40d007U, 0xbddd2755bdb7ce45U, 0xbdd8912dbe7da1ccU,
  0xbe07e7c9be3bd398U, 0x3afd0259be0037a4U, 0xbd9cb238bd58ee81U, 0xbd0149cf3dbcca3eU,
  0xbd03fd4abe0d410cU, 0xbe00e6cabdece903U, 0xbd496fb4bb84b09eU, 0xbe4f4cdb3cf0744cU,
  0xbe0681ac3e1200bfU, 0xbdd8418a3cf2e7b3U, 0xbe71a0ca3dd9bfc2U, 0xbca04df23d98ff03U,
  0x3ecd47ad3ede81fcU, 0x3e9e68973f1fde21U, 0x3eaa49a23f05cbbbU, 0x3d9c0b5e3e9992ffU,
  0x3e5816c33e648396U, 0x3e839a89bd34b2dfU, 0x3e0595dc3dba3913U, 0xbd9f4a0dbdb835a0U,
  0xbc932303bd4ac52cU, 0xbe157c56bdc44674U, 0xbe8da2dfbd875d25U, 0xbdd6c971be2b20dcU,
  0x3d409782bb946ff6U, 0xbe1d970dbc388d8cU, 0x3b39bb34bcd3a342U, 0xbdef2fa73c88add6U,
  0x3d43a0f23c92b589U, 0x3cc86c4c3cf098afU, 0x3e0e601a3dfb7150U, 0x3e5b8a5d3da91815U,
  0x3e284577be45a061U, 0x3ea32853be1bdc1eU, 0x3e55ecafbd9d0da5U, 0x3e591a47bda0986fU,
  0x3e60d6e1bd02e952U, 0x3dd1e23f3d2409eeU, 0x3e5d97233de8f60cU, 0xbc96c78d3d0450e3U,
  0x3c94224a3e2c1e3aU, 0x3d8d42e43d9a281dU, 0x3e2c3aa03ec81c17U, 0x3def5f273ec6d595U,
  0xbea35de13d327e54U, 0xbe88264a3dc60973U, 0xbe8e0f73be2e8015U, 0xbe9f5829bc66a021U,
  0xbe930428be1d962bU, 0xbe31fbc33d699b78U, 0xbe7dbd6ebd3ec0fdU, 0xbe426528be34104eU,
  0xbe170264bdbc4abfU, 0xbe482d83be008c1cU, 0x3af4d61bbe34841eU, 0x3dd36cc8be0cf4b9U,
  0x3e257b56be348c26U, 0xbc84a506bea8c503U, 0x3d0e22c5bdee54f7U, 0x3a4691eebe884757U,
  0x3e5cd6c2be90284dU, 0x3e47e6fdbe9b07acU, 0x3dd800bfbd29b96cU, 0x3dd245a5bdc1ce25U,
  0xbda54bf7be3b13d3U, 0x3db2936abdfffb1dU, 0x3d2def75bc2b964cU, 0xbe00e849be4dd99aU,
  0xbe39c572bdc180e2U, 0xbdf00a4dbdab2ed8U, 0xbea394f83e002afaU, 0xbe32e2d6bdb67cacU,
  0xbe3dd717bc85ced3U, 0xbeabdc2c3dce73d1U, 0xbebe8d783dd55ec9U, 0xbe9b4fc43e3e74ffU,
  0xbf01ac8f3e46c50aU, 0xbf2231793e3560c1U, 0xbf377ebb3ea3c993U, 0xbf2264e93c89699bU,
  0xbf1e37963cf1c6a1U, 0xbf075d12bddd54c1U, 0xbf0cd530bd3f4d53U, 0xbef36873bd259b12U,
  0xbe8b589dbcc7aa48U, 0xbea6eaab3cbf6eb2U, 0xbe5e2740be797113U, 0xbe9225d0be5d61c9U,
  0xbea2ab32bdbd4f85U, 0xbeb11adbbd793609U, 0xbe08c64cbe9fd27cU, 0xbde6000abe57d503U,
  0xbddf8866be88850bU, 0xbe1f5205be19af36U, 0xbe16e8d9be7eebadU, 0xbe6a3e1cbd29ccaaU,
  0xbe6586febde48404U, 0xbe55c6b0be42895cU, 0xbe1a50d0bda8dcdaU, 0xbe040d1dbdfa3cc9U,
  0xbd863ec73d96d7afU, 0x3c659ac43d7b3f68U, 0xbd9571b23e541142U, 0xbd180bf53c846897U,
  0x3daf80acbd2fc054U, 0xbd234e403deb282cU, 0xbda23a343e037dd8U, 0xbda98fb83e0e9c0dU,
  0xbe22ecf83e41f4f6U, 0xbc3510683e5dc5e9U, 0x3e10da833df26e50U, 0x3e0fe54e3e9b7cd5U,
  0x3da105963d2daf96U, 0xbcc278aa3d4479a5U, 0xbe0352a03d713139U, 0xbb0405ff3e40d1bcU,
  0x3dcbf72c3d9b8d96U, 0xbd8235573e314eaaU, 0xbd3b36423e8c81afU, 0x3de7f2303eab87f5U,
  0x3dfd4aba3e7d5d23U, 0x3e157bad3eb7e7bbU, 0x3e1016263e306176U, 0x3e0058ac3e17335fU,
  0x3e7a47643eb413a9U, 0x3db6715c3e3464e7U, 0x3c3eced63eb582ffU, 0xbc6231ec3e5c3cd6U,
  0x3d7eb5d63e44f2a4U, 0x3c8552d73e31dab3U, 0xbd5e65ba3d85eb9aU, 0x3dddfbfb3d6cf2e4U,
  0xbe1f848b3e93c3c5U, 0xbc40b3e93e37b17fU, 0x3c9a1dfa3e3ca962U, 0xbdbe68e8bd8f2988U,
  0xbe7642823e5eb1c9U, 0xbd8dd9cf3e1111d2U, 0xbe22b61d3dfc6d3aU, 0xbe5c36d93e24462bU,
  0xbeda652e3e985befU, 0xbf0d24643cba6bc0U, 0xbebf732f3d91cf50U, 0xbee116163de046ccU,
  0xbec4a637bdff2e59U, 0xbe7f03ecbe5b4d51U, 0xbdee2813be0f9751U, 0xbe81a8c4be783813U,
  0x3ca21e86bea3dadcU, 0xbd3ce865be570284U, 0x3c563a4ebe123afdU, 0x3cb1d055be212907U,
  0xbda8cdb8be293a51U, 0xbc6a3bd9be74e849U, 0xbce686d2bce8a5d4U, 0x3e256099bdb06c0dU,
  0x3e097e1abe379a11U, 0x3c4491a9be645d77U, 0x3e3859e0bdfb12d6U, 0x3e598fabbe504b44U,
  0x3d6ebc01bdd09fdcU, 0x3d618a64bdc83f75U, 0x3cdd233fbea19bb1U, 0x3de46065bd9bcce1U,
  0x3c257959be212b6fU, 0x3d3f05afbe2bcda7U, 0x3e401ef9be3959f5U, 0x3e4b1578bc942759U,
  0x3dc063ebbe5d4810U, 0x3e5e40c6bd4a64adU, 0x3d8fcf40be130fbaU, 0x3e5298643c2710d9U,
  0xba6648e5bf000ec1U, 0x3dcc7462beb2cf9bU, 0xbe29d64dbdd82b46U, 0x3d58bd80be7ff550U,
  0x3d945bcdbe732668U, 0xbe2e6f57be21ed3dU, 0xbdf28c7dbdac68ccU, 0xbbef223dbddaab97U,
  0x3a5dd81cbe8f20a7U, 0x3cb65addbea287a2U, 0xbd42e350be1fad88U, 0x3ddf10cbbe69ddedU,
  0xbdbf89f7be4f60edU, 0x3e38ce0abe6b9c74U, 0x3e030d81bcde6fb9U, 0x3d7395adbdccd4dbU,
  0x3e78faeabd89f437U, 0x3e115b28bd8b5be9U, 0x3e2d27f8be263333U, 0x3de100513d261e1cU,
  0x3e8bbc12bd647da0U, 0x3e4d578bbe2508abU, 0x3de58c83be89118dU, 0x3e8c689dbe93bfb8U,
  0x3eaaedd1bdaa729bU, 0x3e58cb5ebe8137c9U, 0x3e624ccfbdfd4297U, 0x3e7c141a3e38cbc6U,
  0x3e6ea91e3e437dfdU, 0xbd90ee8c3e6e7934U, 0xbdb8ba073f0bde1bU, 0x3d8aba403f1c62f4U,
  0x3d12cfdf3e9fcdb5U, 0x3d0764593edf2d8bU, 0x3d7488973ed187e0U, 0xbd6df4ad3e96805cU,
  0xbc856abc3e260baaU, 0xbdd6da9b3d79bd43U, 0xbe762f0d3e29e931U, 0xbe26efda3daae96bU,
  0xbe968916bd2f50c3U, 0xbda4ee13bd498423U, 0xbe50ad3a3d155ea1U, 0xbda106c13a24f085U,
  0xbdef55dfbe7d6413U, 0xbdfdd23cbea07da6U, 0x3c8b9d69be71e597U, 0x3b94b769be63cc54U,
  0x3e4e1163be42ef2dU, 0x3e59c2f9be818db7U, 0x3c2dc12cbdbdf53aU, 0x3d28c44abe8254bfU,
  0x3e38c9f5be0bdd46U, 0x3cf49058be3659d1U, 0xbd501a06be298d93U, 0x3e27d3b5bbd287e0U,
  0xbd521f79bdcebd2cU, 0xbcc381b9bda60ef1U, 0x3cc43ee23e2399b3U, 0xbdfa21f63dc799b5U,
  0x3df4677ebd51b658U, 0xbe12a3f63d1357c6U, 0xbe47194f3e801425U, 0xbe12acc23e220ed5U,
  0x3d2e8cd8bd16c478U, 0x3e2a8285bd58f8dfU, 0x3da0ed65bd9b293dU, 0x3dbb3fda3ca81738U,
  0x3e162fd8bd7112e7U, 0x3c1acedebe423e29U, 0x3e19d5193c314244U, 0xbc40a5f93c203e17U,
  0x3e0707bcbd75b571U, 0xbd520fcc3d06825cU, 0x3d0094b1be536e1fU, 0x3d7d4b073d1f7848U,
  0xbce0b5fdbd195b6eU, 0xbc42a7ea3c768fa2U, 0xbda471abbdefe78eU, 0x3df782cc3c93371dU,
  0xbd09f6b4bce18e41U, 0x3e173011bdab73b4U, 0x3d7871c8bd2f8c6eU, 0x3e069078be100d27U,
  0xbd590f653dca796bU, 0x3e29d00f3dbd2d2bU, 0xbd33f491bd8500a0U, 0xbd80d5503d8a82d9U,
  0x3d9b3fe63e13a926U, 0xbda5e4f73dfabbb8U, 0x3e10ec7d3e1a9898U, 0xbdba4c1b3e033d2fU,
  0x3e0eaf433d686e02U, 0x3e28372c3e516020U, 0x3e0cb4d33e605b3aU, 0xbda4302e3e4ad55aU,
  0x3e84b062bf17aecfU, 0x3eeb4472bea2aed9U, 0x3e994743be0ddfbcU, 0x3e738f90bdbd8639U,
  0x3e8e5072be614176U, 0x3e5f9a3cbe359a19U, 0x3e94f3e83d8689e2U, 0x3ee6ebe3be005f6aU,
  0x3e8819cc3e140626U, 0x3ebf0b22bbc0d310U, 0x3ea6f4523bf5d53eU, 0x3ea0431bbd351f98U,
  0x3e82b7553da59cc3U, 0x3ea51bc43e44ecb7U, 0x3e33c3083dfde541U, 0x3e7400993d509cebU,
  0x3e6b467b3e75574cU, 0x399eacc73e4d35d5U, 0xbcdbc926bca2b1f5U, 0xbe24b20c3d822684U,
  0xbe505fefbc54ff82U, 0xbe429836bd4b2efdU, 0xbe810ae0bbcc0cc6U, 0xbe487c1dbe075765U,
  0xbea21cc0be0afabfU, 0xbe8e0a8e3dccf3b8U, 0xbe8c7e033d314362U, 0xbec66329bdcebd09U,
  0xbeddad75bd1c8adbU, 0xbf170d493b5954a3U, 0xbf0be5eabc5f7b93U, 0xbf273ed4be53b239U,
  0xbe9ac07bbe33d1b3U, 0xbe52b138be4296b9U, 0xbe46e67abd61646bU, 0xbd886d623cf92f4fU,
  0xbe7d82b93ec7712bU, 0xbe35f5593e780f90U, 0xbdb71b183f036625U, 0xbe2a0a283f0d9f76U,
  0xbd9c5bb43e75f54bU, 0xbd22ba263e84d41aU, 0xbcb5bee03e8fa709U, 0x3d73f4db3e6ecff7U,
  0x3e1e11293e6c327bU, 0x3e11e2253e1b2a80U, 0xbd240c763df0ccc1U, 0x3cd03fdd3e04e747U,
  0x3d5639ab3e2be272U, 0xbd36ea103dbd9397U, 0x3dff6ff1bdf95f23U, 0x3d9d359fbd5634a9U,
  0xbcd96212bdd17ce4U, 0x3cfaddd3bdc31305U, 0x3e168d09bd8ceefcU, 0x3d905d67be5f0cd0U,
  0x3e2928533c8e5d68U, 0x3e905d65be2c6fe8U, 0x3e65b572bdf1b0a5U, 0x3dc3b178bd40f96eU,
  0x3e61f7533bfa2db1U, 0x3e0dd34b3e55a1d6U, 0x3e332d7e3e65107eU, 0x3e1b2f3f3da0124bU,
  0x3e4205cbbd29bb98U, 0x3eb5578b3d17d085U, 0x3ec655b4be180147U, 0x3e55c6f9bd32dcd5U,
  0x3e806274be1c8202U, 0x3e95601fbdd6a626U, 0x3e3631f2be96a180U, 0x3db3114cbe68f955U,
  0x3e0d85f5be88a933U, 0x3e7ecfc8be28a1a8U, 0x3dc9fae3be929185U, 0x3e800dddbea33a45U,
  0x3e14ec5fbe5a6cf7U, 0x3e699fc3be9e93ffU, 0x3d8ccfcfbeaf26a3U, 0xbdb8674cbe772177U,
  0x3d80d278bdf7fde3U, 0xbc922b67be927909U, 0x3df0b1dfbdd3cbdaU, 0x3d826709bce0a38eU,
  0x3cf597e3be02d819U, 0xbdb1eaa63d6fd75cU, 0xbe0fdf883c85ba96U, 0x3cd32e18bd8e595bU,
  0xbe618e24be4c60cbU, 0xbd985e1dbd8222d0U, 0xbdd718ea3ce0ce53U, 0xbe02a92fbe00bae8U,
  0xbe8e2fd53c9f4aabU, 0xbddfcaf43d9dd8d3U, 0xbe92d862bca34b5cU, 0xbddf25e73cbdad38U,
  0x3d14a399bc632a43U, 0xbc27920dbd9efc89U, 0xbe3a68a3bc386c89U, 0xbc8677d2bcf8d35bU,
  0xbd601ea7bc1309b8U, 0x3da6e2ee3c69b7abU, 0xbc14a514bd563b34U, 0x3bb90cb43d5123f1U,
  0x3dd3b2d73c5c63fbU, 0xbbaac294be702250U, 0xbdf66092bdce45e6U, 0x3d41e340be057946U,
  0x3d9647293c61ae7aU, 0xbe345081be16b97bU, 0xbe00fe27be1350aaU, 0xbdd25015bd85a05aU,
  0x3d4483393c7906d2U, 0x3e67fd013d2dcb51U, 0xbdb6b6983e0ef815U, 0xbd9dc1953cdf0d13U,
  0x3e7598e4bd876effU, 0xbee94cbdbf139653U, 0xbc858c2d3d808eccU, 0xbec08ad13ec04b57U,
  0x3ad80ec63d434827U, 0xbd0a88783e07ab82U, 0x3e9ea32b3b5687acU, 0x3e8aae3b3c51fe5dU,
  0xbe2c39a73e17aa92U, 0xbe2cf133beae50feU, 0xbda0571e3e1c8bd8U, 0x3d37baeebe8c7870U,
  0x3dc9e81c3dfc6f4aU, 0x3dfbe1d1bda509d0U, 0x3d9bcd7b3da497f8U, 0x3d9293ce3daf8c9aU,
  0x3cae0a92bdb0cadfU, 0xbe90dedfbec7af48U, 0xbe02c72c3d190fcdU, 0xbdcb2a133e8ce9eaU,
  0x3e46dc893e219707U, 0x3db230c23d8c7895U, 0x3dfaecae3d846ec6U, 0x3e5ff62c3df6255cU,
  0x3d90d2ce3e865c8dU, 0xbdf7eaaabed6131fU, 0xbea1c8153de05ff7U, 0x3d846f85be3c08e4U,
  0x3e8025213d69420cU, 0xbc42c096bd4f445dU, 0xbc98c5ca3d8972f1U, 0xbd006faa3e23da43U,
  0xbdfca8763cb9eae0U, 0xbd19d421bea63390U, 0x3e363feb3c5e81c4U, 0x3c1834eb3dc210afU,
  0x3cfc8c0b3c336992U, 0x3e809479bdca8648U, 0xba405d8bbd8d90dcU, 0x3e4d7c923e684f00U,
  0x3e018ebf3e1dded9U, 0xbd87a706be9ecb07U, 0xbef4c065be3d1a63U, 0x3e775477bd6bec90U,
  0xbe65efa0bdd100d5U, 0xbe1559d53de0b122U, 0xbe1f80973c847125U, 0x3e15c1bd3cc3708aU,
  0xbd8b83e2bacd5d23U, 0xbef25c273e2386f9U, 0xbe3354263d3f454aU, 0xbceeabfbbe19ac22U,
  0xbdfeebb3bdc1afcaU, 0x3e2d0e743d6610e4U, 0x3e9ecfbfbcf6bbb4U, 0x3dfa74853e6d7f49U,
  0x3e6adf1b3c072a79U, 0x3dbbecb13de2884eU, 0x3ebe4d1d3e7394c2U, 0xbecec8033e89bd42U,
  0x3db611643e3aed15U, 0xbef2cf76bccb43edU, 0xbe468541beace0c7U, 0x3d04bc6b3df79735U,
  0xbe07801f3de2b795U, 0xbed51e003e4cfd52U, 0xbdf3c0233da91aceU, 0xbe170113bce763d9U,
  0xbe489bf0bd26a85eU, 0x3d02c1e73e766405U, 0x3e537864bd671ce6U, 0xbdfcba603e5a4e50U,
  0xbd47f0ed3e76add7U, 0xba182f2a3e8c6a01U, 0x3e6608443eae93f9U, 0xbedb3f2b3e6584adU,
  0xb939622f3d21896aU, 0xbe6a21dcbdc425ceU, 0xbea16c91beb2728dU, 0x3e1a16c5be164b6fU,
  0x3d25b092bd885fddU, 0xbef566e63de09af1U, 0xbde4bace3dbd7c72U, 0xbeb62004be5dab47U,
  0xbd811fe4bcd9fe06U, 0x3dee733e3e803276U, 0x3ecdb1453d99c45eU, 0xbe82b31e3d803db0U,
  0x3e1abb803e8a8679U, 0x3e48f09e3f0a8bdcU, 0x3e810d6b3da233b2U, 0xbee61a46bd18b9fcU,
  0x3dc413b53e685d21U, 0xbca1fa89be89837dU, 0xbe1bea783dbcfcddU, 0x3e4846363dc999c9U,
  0xbd007523bd35d4e7U, 0xbf0042003e90e627U, 0x3e8fc74dbd023376U, 0xbe655991be5c35daU,
  0x3e52a4033e28d071U, 0x3ca73cfd3dca1beaU, 0x3c22c3473e2c4ec9U, 0x3e36834ebd5431f4U,
  0x3e1685423dbf2b1aU, 0xbe4d34013e6e7b53U, 0x3e3893b13daed68bU, 0xbe54fe063e1818e8U,
  0xbe8c5d143df2d2c0U, 0xbc39dc51bd5bc073U, 0xbd77ad443d845d83U, 0x3e61c1183e93a8e4U,
  0xbe12a48f3b381f4aU, 0xbe72a69b3dd3ebdeU, 0x3e47f9e43d3712faU, 0xbdbaf814bcbb9373U,
  0x3e025d67be0e103fU, 0x3e54bb453cb619a0U, 0x3d26254bbe65ba54U, 0x3dbd5362bcb2bc11U,
  0x3e0af0ed3da1692aU, 0xbe05e3213c647c6dU, 0x3d8822563e3c347dU, 0xbebaf3a73d35235dU,
  0xbdd635693d9d167bU, 0xbe52f02bbd0b1b66U, 0xbd893649bec8266aU, 0x3d1db145be103162U,
  0xbe2239cf3c028750U, 0xbf33eb2c3db2dda5U, 0x3d8f64d0bd6f56e0U, 0xbe6d35d83d9ebc84U,
  0x3ca4a8cc3eaed2ffU, 0xbdf7611d3e102df2U, 0x3ea13ccbbe6507abU, 0x3de808cbbe4c9450U,
  0x3e02752e3e4ac635U, 0xbde6cb043eb27319U, 0x3f48cdc33f19f0d1U, 0xbe72bdebbe205defU,
  0x3deb565bbe24fc32U, 0x3ea8f1aabe4e6844U, 0xbe9c2d063c554131U, 0xbe03f6efbe857745U,
  0xbe0ada553e0e30b0U, 0x3e8dfa1a3e4a2260U, 0x3ebf31353d3272d4U, 0xbe03e656be4a892eU,
  0xbe0e4973bd8f5580U, 0x3ea5dc17bd5d9071U, 0x3dba37b23ce43aefU, 0xbe8da8033eb6ebbfU,
  0x3d742227bd61f248U, 0x3f1e1689be503401U, 0x3d68c6abbea12a5cU, 0xbe6d427bbf372057U,
  0x3e3a7375bf1b8d8bU, 0x3ced907dbeb38ebcU, 0x3c2f021dbd2273f3U, 0x3dc946903d75f7d7U,
  0x3bb0ab90bda73890U, 0xbd0fff4bbd6a4139U, 0xbf2039e0be05cfafU, 0xbe9e23713da818daU,
  0xbe505cec3ec76ef8U, 0x3e0bf51bbecf34c8U, 0x3da9e4c9bd86811eU, 0x3e67a9e73bbb1092U,
  0xbee172e0be3ef345U, 0xbe93e4c93e8239dfU, 0x3e9fddcf3e31b80bU, 0xbe82f8d9beb3d399U,
  0xbe17f35b3cef08c0U, 0x3e01308c3c268c50U, 0x3e36fff1be937fafU, 0x3e98222d3ccb03abU,
  0x3e238ac53deab0a4U, 0x3e39b1313ed426c0U, 0xbe2a3b39be3add3eU, 0x3cb689d1bcd4d0a9U,
  0x3ea382b5bee29436U, 0x3e212e323ec7a1e3U, 0xbc976e703e33a1e1U, 0xbe3344703e02d304U,
  0x3eb39c2bbd3f0416U, 0x3efc2fd83e010c42U, 0xbeb45329be3d73a9U, 0x3e61b3ea3c4d9fa9U,
  0x3e6da71a3e3af758U, 0x3def3c9bbe2ad0a3U, 0x3e3c6a82bc965187U, 0xbd2702e4be027bfcU,
  0x3dae312b3b50f971U, 0xbeebeccdbe8c5ab8U, 0xbec37253bc38636aU, 0x3e072a3f3d83d66bU,
  0x3c1eb0e7bda1325aU, 0xbdff31d4bdcacfbcU, 0x3e39f0933e5ca7e5U, 0x3dc7e3353e604f07U,
  0xbd14679b3e17d6c6U, 0x3de5991f3e289854U, 0xbe837870bb9d9435U, 0x3e5e26763d4bc8caU,
  0x3df22e363c4c037fU, 0x3cfbe78fbe022782U, 0x3e21d5fa3e009035U, 0xbd488aa43d9a645bU,
  0x3d0fed5abd8c5490U, 0xbed0de96bd2b0187U, 0xbf0acb843de59bbbU, 0x3e8fcf373de61dccU,
  0x3da9bdfdbd670646U, 0x3d446b5cbb6736d1U, 0x3e3750063e73ceabU, 0xbd51492a3e30943fU,
  0x3e6332253d5139c4U, 0x3e13df33bd7c5c4aU, 0xbe509e33bdeb380eU, 0x3e24f995bda22835U,
  0x3ea586dc3e4ff0c9U, 0xbe0e4ba1be35f18dU, 0xbcaeefe33e02cec6U, 0xbe1fe1433df5795fU,
  0x3e266aaf3dacdfa6U, 0xbf04b94cbdcd908eU, 0xbf1b8d553c489b16U, 0x3e3aac8ebde54ef9U,
  0x3e1b96c5bea4f330U, 0xbd2b0e5c3d8d7cd6U, 0x3e1cafae3e21f0e3U, 0xbd2a2b923e31c9d1U,
  0x3e2771463e08fc12U, 0x3e5a1d6b3e4386c9U, 0xbe9cba20beb3fa6eU, 0x3ed9a30bbb8172f5U,
  0x3d3ec47e3e7bdccfU, 0x3c4063703db2c489U, 0x3e02de673de79de7U, 0x3d0fb2303d3dcd0cU,
  0xbd8a8b0ebd8e8fc3U, 0xbed8143cbed60908U, 0xbe54a7ae3e6e61b8U, 0x3ea7c0ab3e838bb5U,
  0x3dc0cf52be2df392U, 0xbe7362b4be17317cU, 0x3dea2661bdfe5910U, 0x3e1fbb57bd959d30U,
  0x3ddb92b33e9f95dfU, 0xbe137085befba8f1U, 0xbe8375a9bdeebf3aU, 0x3e511e3fbd9c0e6fU,
  0x3e4a23b73e1ec435U, 0x3e67487f3e6c5f61U, 0xbd9627473e3dbc91U, 0xbcabab893e1925acU,
  0xbe21a72d3dc7b032U, 0xbea4b2e1bd8a7d63U, 0xbe5f86e93e6a3070U, 0x3e3a8d2a3e873d7dU,
  0x3e800331bd9e68b0U, 0xbe8dbae8be9e583bU, 0x3d8ad1a7be3d7a55U, 0x3dd266cd3d732337U,
  0xbd99f4113e497a6eU, 0xbcb56b96bf017215U, 0xbe643d04bdd2a58cU, 0x3c2e9faebdfb3025U,
  0x3e4e8a203e196c39U, 0x3dd8f0493df4af02U, 0xbdf973bc3da3bf9eU, 0x3d8bc7bd3e7c494cU,
  0xbdf188b7bd1c5990U, 0xbd2fe21ebcba0a4aU, 0xbb9755e93e0a03dbU, 0x3dd679b1bb332399U,
  0x3e80b3d3bd8aeef5U, 0xbb49143ebf21166bU, 0xbe423c67be1a8081U, 0x3baa5f6a3e185c45U,
  0xbcee20893ea62dafU, 0x3dcc15adbec06ebeU, 0xbeb43253bdeae0f1U, 0x3ed3a52ebd2e0a79U,
  0x3e3f6c39bd8e5fd6U, 0xbe41eacd3e7aa5d1U, 0xbda85e203d30886bU, 0xbd28c276bdd71d29U,
  0x3ede0a91bc107ef5U, 0xbf222d53bc7ac45cU, 0xbce536b2be854a9fU, 0xbd2573573db4d31cU,
  0xbc03026c3e24866fU, 0x3ea2e2643e0b5471U, 0x3d43720a3d869789U, 0x3e4157633e84cc30U,
  0x3e3b9d34bf03af9aU, 0xbe3a18bcbda3ac8dU, 0x3cbf06463da366ebU, 0xbec887cbbe88ecf8U,
  0x3db07520bd8fb503U, 0xbd7f340a3d415f73U, 0x3badb63d3d2b01dfU, 0xbe061260bd5ffea8U,
  0x3edb6c7c3ca5f1afU, 0xbe900a653d39042eU, 0x3e1ae711be82e424U, 0xbd8c6af43dea9482U,
  0x3e654a31bd93de50U, 0x3d11a5433e218e2aU, 0xbcab1a2ebc791fbeU, 0x3d129e613e863510U,
  0x3b98d253be9ec0cbU, 0xbe133313be286c18U, 0x3c7060013d1a71ddU, 0xbeb2d74abe99f731U,
  0x3eb99810be85c345U, 0xbe54b8793d8c58c5U, 0xbe2a18873e2fba75U, 0x3cda5086bcbaa4a7U,
  0x3ebfc0bb3c80c928U, 0x3e4753523d198a46U, 0x3d7413b7bddba43bU, 0x3e5bb65a3d1bc487U,
  0x3d3f8b9b3ecea290U, 0x3d983db63d227622U, 0x3e7890d73db474abU, 0x3e81a4f0bd303be5U,
  0x3e8cfddfbe0b4927U, 0x3e16f1cc3e1ae946U, 0x3deb16b63d1295f7U, 0x3f0203dabe4f763eU,
  0xbdc9e49a3d8a8e31U, 0xbd8f5717bdd4e62cU, 0xbe58ec4fbcc4ffdfU, 0x3dfe147ebcad7d81U,
  0x3cad959c3de1c34dU, 0xbf15066b3eb92204U, 0x3d3504fbbdee8a60U, 0x3ccf3393be7136e4U,
  0xbce5183e3cde5000U, 0x3e17a76f3a179177U, 0x3e5a4e963ea4638aU, 0x3e4a725a3d2f31a7U,
  0x3e70b2413db05af3U, 0xbdcec6363e99c6eaU, 0x3de430553dda3871U, 0xbe3944903d8ba832U,
  0xbe0996233d6de4cfU, 0xbd95c451be052e09U, 0xbd90b472bddc629eU, 0x3e2c3b993e3ed1e0U,
  0x3e1a2498bd63438aU, 0xbec9e1293f101055U, 0x3da16f89bdc0e578U, 0xbe6dd6c8be8c2fc3U,
  0xbd0571783c8d9830U, 0x3e326f39bde16836U, 0x3e2b162d3e1bce00U, 0x3c904a6f3e44a3c9U,
  0xbc6d63723de2649cU, 0xbe372cbd3c002837U, 0x3e0a60053e096e7eU, 0xbeecd4063d525588U,
  0x3cc3d691bcfe497eU, 0xbe17d6f3be4ee3d7U, 0xbe18efc7be78854cU, 0x3e2aa60e3ddda067U,
  0xbe4cc52b3dc701a4U, 0xbd0302293ef001d0U, 0x3dbbb604bc807212U, 0xbe29e99abd343eddU,
  0x3be1b5853e02d864U, 0x3e53fdb9be3fb062U, 0x3d1e8c4fbdde6aefU, 0x3e1e46153e41ae15U,
  0x3e6b42433e290b10U, 0xbe0870f13ed5bb30U, 0x3eeabe4e3e83ef7dU, 0xbea47024be4899fdU,
  0x3e1e32473ddf5701U, 0xbf03bc47bed8f8c4U, 0xbe05421b3dae9535U, 0x3e3de5173c3c063cU,
  0xbeb80a753d8522d6U, 0xbf0a4e5d3da3999aU, 0xbe62782bbe369a1aU, 0x3ecdfcddbc80abf9U,
  0x3e136d94bdf240a0U, 0x3ea79b4c3e81c2d8U, 0xbd59f9babe811da7U, 0xbde9d0e03e444312U,
  0xbe48757dbe6fe98cU, 0xbd87a2cabda03c94U, 0x3ec68e973dce17ecU, 0xbe5cf351bea901e3U,
  0x3e7385fa3eb03045U, 0xbe89b1b53edbf38fU, 0xbe00636d3d2818e7U, 0x3e502820bd36915dU,
  0x3e146ee2bde842e7U, 0x3d9e45753d8910ebU, 0xbe0149b73e4bf4d5U, 0x3eeee0253d62ddb7U,
  0xbd5b732abe5b7235U, 0xbe01f662bbdc58a5U, 0x3d551793be58cba6U, 0xbce36acabd401c95U,
  0x3e1473e63991105cU, 0xbee55be73e3d8918U, 0x3ea62ad73dc2464aU, 0xbef3b0063e224114U,
  0x3d303261bd990ee3U, 0xbc9f6bb63e8130f4U, 0xbdda4c123ddc8cc1U, 0x3dc117b5be6d24e7U,
  0xbdff577ebced1088U, 0x3e72d9473e966fdcU, 0xbe4cacbcbd22faacU, 0x3dd45c113bd5f3ceU,
  0xbe8fab06be3f8941U, 0xbe4bd265bf2eca74U, 0x3e134332bd87cd89U, 0x3cb706afbd678481U,
  0x3dbbe3aa3d6caf0dU, 0xbe412b823f1cb80dU, 0x3f282fcc3ee24832U, 0x3e1fb644bdc3248cU,
  0xbc5adc453eba3444U, 0xbcdcc579bdae1f61U, 0xbe016593bcfb6c69U, 0x3e4fbd0d3e35054eU,
  0xbe4c3547bdf3fa42U, 0xbf16681ebe52fae2U, 0x3e329f5d3db41674U, 0xbde9360b3df9ab7fU,
  0x3e79f2fd3cabe3e8U, 0xbd94cc4e3d9708f6U, 0xbd737440bc058f38U, 0x3e312915bd2b61eeU,
  0xbd72298d3db80800U, 0xbf1732f7be9ca344U, 0xbe5401663c5cb0faU, 0xbdb3df2b3e415243U,
  0x3d2be1a63e79a3bfU, 0x3ddce4e63d233c89U, 0x3e6063b1bd824953U, 0x3db7f0373e2dca50U,
  0x3ba7f10ebcb57c4eU, 0xbedb5cd3bd372e7fU, 0x3ebdaf3339ef4ad6U, 0xbd140dde3de223e1U,
  0x3e7ef208bd86fb53U, 0xbd450a3f3cbb3c8fU, 0x3e16c7c4bd553181U, 0x3e59ae7dbd1dcc4eU,
  0x3d4e74a13d1dc6c7U, 0xbed6e7b4be529a24U, 0xbe97528cbdf8f556U, 0xbdc35d423e3f3a1bU,
  0x3e316db9bea3d38fU, 0xba24886b3c9eac6aU, 0x3d921b96bdde2921U, 0x3bd696363e8a2de4U,
  0x3c810b943d8970f8U, 0x3b4aff59be2e5458U, 0x3ea4a5373dd60a87U, 0xbe1f6b1a3e9b06c7U,
  0x3c49374a3e054a2cU, 0x3ea7780ebf00a6c4U, 0x3e52633abe9a3c7cU, 0x3e6c77983e13e362U,
  0xbdf018063dc3dbe0U, 0xbe4a4084be83bf51U, 0xbc44e2353ef3362fU, 0x3dcb02683e386448U,
  0xbee463823e4b6a15U, 0xbcb78daf3e09bfe3U, 0x3e2cbef2bd2f7084U, 0xbd67b0513dab7ee5U,
  0xbd8b11aabd8b6380U, 0xbe4ecd5a3f406b0aU, 0xbdf0cd02beabe46aU, 0x3e7af347be99dc1eU,
  0x3d9b7207be62e1c1U, 0x3dec4b23bd2c0872U, 0xbdfe6366bd9f0a87U, 0xbdf1da773e73b01bU,
  0x3e6388003d8ed87fU, 0x3e87d1d5bd8d77d0U, 0xbe89236fbdcdebdcU, 0xbec750b73dc3523fU,
  0xbdbafc083e52762dU, 0x3d61abd1be7a21e6U, 0xbd3e7bdd3e379213U, 0xbd3e9860bbe34c1aU,
  0xbe5ec8503ceec815U, 0x3eac944b3e1593caU, 0x3e38d52e3d87470cU, 0xbd68bd7a3e04a005U,
  0x3e0e1bf63d65aa95U, 0x3da89a533d163c41U, 0x3d5dbdacbd04f7eaU, 0xbe1d0f84be84fb89U,
  0xbd68632abddeec44U, 0xbe96fca93e686902U, 0x3e4737edbd780fe9U, 0xbe087d9b3e3b4860U,
  0xbe2177873da50875U, 0x3e2b7fa33b97cda3U, 0x3d939ea3bc66525dU, 0x3e428068be6c3f51U,
  0x3d9f631fbcd2e0fcU, 0xbf08ba1d3f07ee2fU, 0xbea72206bdb2d746U, 0x3ea18f42be3011b8U,
  0x3e1eb781bba32d2fU, 0xb9bcab8bbcff8d1eU, 0xbdfa45a53d6e34d6U, 0x3d57b904bd5c4584U,
  0x3e1f8fb13e207515U, 0xbd3e30c03eee220eU, 0x3f017c633e9a748cU, 0xbecebb0b3c5799b3U,
  0xbe8ae11a3e0496d0U, 0xbecbb8363d6770d0U, 0x3ccddfb4bec40ef4U, 0xbe2df45dbd82ad09U,
  0xbea665e4bb8dfb3dU, 0xbf1299433e889044U, 0xbd49bb553cd3c633U, 0x3ea3b36dbe9a1579U,
  0xbe77eca63da15c02U, 0xbe4689593dc22701U, 0xbebf90fd3e55a8feU, 0xbe20304abe035010U,
  0xbe0406f9bf361015U, 0x3eb615413eacecfbU, 0x3defab2e3e4837c8U, 0x3d4a6f583defb6e3U,
  0x3c87b66c3e788fdbU, 0xbecb451abed53f64U, 0x3e8296593d9c1792U, 0x3db281eebdfc58d6U,
  0xbea940ac3d8c7e4aU, 0x3dfabefebe059b9bU, 0x3c8a0de33d7ec0bbU, 0x3e889993be499fcbU,
  0xbdc1000d3e116565U, 0x3e376dd83f1d2eecU, 0x3e0fae353ed287acU, 0x3c956372bc34c4c3U,
  0xbea12b11bf02ba74U, 0x3e4082683ed5753eU, 0x3e8029c63dfe7ed6U, 0x3d5b9820bd973e51U,
  0x3d0904ea3da4fefbU, 0xbe85d117be58d7e1U, 0x3f25beb73e7e3dadU, 0x3eb5d2d43eb5cd21U,
  0xbc4be8833ded3708U, 0x3c4cbb8bbec481a4U, 0xbc8eba3b3dc3f3abU, 0x3d66959abeb1eab3U,
  0x3dfc4a07be859cddU, 0xbea172c53e0550edU, 0xbe9a1386bc230b37U, 0x3c72067ebe1ee52cU,
  0xbd84acc43e3e21d1U, 0x3ebdcd25be94a3c5U, 0xbedca84e3de0f103U, 0x3e72e15f3e8224eeU,
  0x3bb132adbcf53728U, 0xbd8fb9bdbd0676e2U, 0x3e4eae083c901c80U, 0xbed675febe8733f9U,
  0xbf0d2b5d3d2efcd7U, 0xbd6c62963d6e94b0U, 0x3deed8adbd795748U, 0x3ef578bd3def3317U,
  0xbe9f84853d6ba51aU, 0xbe40cc9dbf0ce75aU, 0xbe52b41f3e064e89U, 0x3e2681b0be38a872U,
  0xbed9e7e03e32769eU, 0x3ec6644bbe242ec9U, 0x3e2ac88b3e0809c0U, 0x3df84c38be21f291U,
  0xbe06ab4e3e215412U, 0xbda6ca2fbd2d3f6bU, 0x3e0c14fab97d7efbU, 0xbe28705e3e389f5bU,
  0xbdcbf6e03d8dfbedU, 0x3e2038c7be14953bU, 0x3e0b07263e863dccU, 0x3ef68c7abd150362U,
  0xbcfd97a7bc36f585U, 0xbd42c173bbf075c5U, 0xbe2695663e1ab08cU, 0x3e27c4c4bdcbfdaaU,
  0xbe8566523eaa8214U, 0xbe0720b63e0841aeU, 0x3e00c6663e2169e2U, 0x3e2ec4253e00f35bU,
  0x3e0c3f433da99c27U, 0x3e0c6da4be8bfe86U, 0x3d912a423dd62aebU, 0x3c19bf623e01f0d3U,
  0xbe2a85d3be02c26aU, 0x3ec3ed583ec91aa8U, 0x3db534343e3c9037U, 0xbe2ee7383d9fa379U,
  0xbca833303b17777aU, 0x3d18319ebd72eccfU, 0xbd866cc8be44e26cU, 0xbde1d9493b12f5b6U,
  0xbdc7f2b83d278148U, 0xbe453fc6be4f1113U, 0x3ec4805e3e2cde21U, 0x3d4b9fda3e942fa5U,
  0xbe7204723d312e34U, 0xbf17678c3e05e680U, 0xbdf77571be743856U, 0x3e029a063e6a9ec1U,
  0xbcfb2a023d91a282U, 0x3e3a71bd3cc5f5d1U, 0x3e1ed970bc7163f9U, 0xbe3c75053d64e784U,
  0xbc6bbcb5bd8d2a53U, 0x3e6b21ae3e934a4cU, 0x3d1a1f8abec9cb94U, 0x3ddb1191be5ef707U,
  0xbe8d7ff53b106d13U, 0x3d7a4e8c3e37df3fU, 0x3e78602f3da7cad5U, 0xbe283c753ea0063cU,
  0x3e1a59f13dc9ab64U, 0xbebadefe3e17a4e6U, 0x3e18bc6c3cd4ec61U, 0x3e7d98b43cb69e17U,
  0xbd785f42bde2f570U, 0xbecbf2093e2d0ec3U, 0x3d2c7a333e865a7fU, 0xbe1fc9c33ba2cb1bU,
  0xbe72dba7bdc61f72U, 0x3de41f193e9c9879U, 0x3e5fcb8d3d8f0273U, 0xbe48a3953dd651c1U,
  0xbe46e8f3be46fb0fU, 0xbe928f2f3ed8b60eU, 0x3da931f83e3e77a8U, 0xbe45094d3e9884b5U,
  0xbbba2551bdeadeb7U, 0x3dfd5c863e9e8f36U, 0xbea8207ebd9625aeU, 0xbe10658abe7be98cU,
  0xbc8eb4523df03810U, 0xbeca3cc7bea50a6fU, 0x3eab6dfc3e054311U, 0xbce8fe0f3e2d0cbbU,
  0xbef3e952bde7066bU, 0xbce382b5bd07b72cU, 0x3dcdb8b1be0f512dU, 0xbe3d61f93d53be9aU,
  0x3c7e696abca3b0d1U, 0xbeef97143e67127aU, 0x3e7451593e2f58fbU, 0xbf5e41c03db0a064U,
  0x3e1a99b0bea3e280U, 0xbd587c523db3d7c1U, 0x3e12298d3e73a8f3U, 0xbe5f782e3e019139U,
  0x3ea0ff61be0e9babU, 0x3f1bbca6bede8a6eU, 0x3da436e53b6b01a1U, 0xbe28b0db3d6528bdU,
  0xbe815c693d98479fU, 0x3e2935c93e3b78d4U, 0x3de9f3bf3dcdca8dU, 0x3d18e4b6bd529c7bU,
  0xbcd9ae63beba9636U, 0x3e49ec643d306c01U, 0x3cd95ee53d2399c3U, 0x3dddb71fbe3c86ebU,
  0x3e44f7bdbe920e6bU, 0x3d542a3b3e6823d2U, 0xbc4e08473e04f5c3U, 0xbe871672be7d1348U,
  0x3e48b3663dd80302U, 0x3ef877acbe7326a7U, 0x3cc7301dbd3e8a06U, 0xbd388036bbed481eU,
  0xbebabe953e0f7cb2U, 0xbdc166f03e6a9c75U, 0x3e03cacd3da4c32eU, 0x3d696d60be0b6057U,
  0xbc2719eabe9d8ec9U, 0x3ea2bb12bc55325cU, 0x3d548ada3d8cdafaU, 0xbc5db923be1d1ebaU,
  0x3e2d4f6ebe9b2070U, 0x3d568d753e34f15fU, 0x3e4521f33db834faU, 0xbea6e794bebe5216U,
  0xbe40f6f33af59d00U, 0x3edac3cdbeaec2bdU, 0x3e524357bdc48056U, 0x3dd0bcd53e3b01c1U,
  0xbe9852a8bcff064dU, 0xbe5c756c3ec7f3a7U, 0xbea4ae3d3ea85079U, 0xbe553b193d3e0533U,
  0xbdbc41babf124309U, 0x3ed54071be9333eaU, 0xbd2953a23d0d0320U, 0x3e86f77fbd369c78U,
  0x3e6e6b1fbeb05971U, 0x3e7d204fbe38efd4U, 0xbeb3888b3da31af8U, 0x3df16522bd643637U,
  0x3e970a36bb86b529U, 0x3c32c55e3d9d5a3cU, 0x3eb34279be2792cbU, 0xbdfd7f2abdfb47d4U,
  0xbdad6a8b3e56770fU, 0x3dedc543bdcf12fdU, 0x3e4d9f183ac947cfU, 0x3e9981083da01c9bU,
  0x3e9186653da9ece3U, 0x3e0b3172be8e0223U, 0x3e0c80c1bd2e3d59U, 0x3e941355bef7fbd7U,
  0x3d803f21be692e84U, 0x3e04fb47be4d4148U, 0xbe7f109c3d977c05U, 0xbd3af79f3dc5b2c5U,
  0x3ee255ec3d912dbbU, 0x3f088e1b3e3c4895U, 0x3e91e719be4b1e0cU, 0x3dd274263dafe803U,
  0xbdfafce43e469af5U, 0x3de5d77abe979b44U, 0x3c01fd1f3e336638U, 0x3d6fa64fbbfef1f6U,
  0x3d338b10bc815eb9U, 0x3c1968c2be785fb0U, 0xbe0197963d0d341aU, 0x3e80b647be8dc99fU,
  0x3e9180a2be123c1dU, 0x3ce55414bdfd1cc8U, 0xbece1a4cbdcea940U, 0xbd840fa6be7cd308U,
  0x3ee5480f3caa5900U, 0x3ea3b2cb3e9e789bU, 0x3ea68ee3be8b4d42U, 0xbe1bc5d73e082174U,
  0xbe7781eb3d6794cfU, 0x3e0df4563e3f1d09U, 0x3c87c9aa3e9215e4U, 0x3e385c403de34ac2U,
  0x3d88d3ffbeb20a12U, 0x3e58721dbd4e6e66U, 0x3e219067be5dbca4U, 0x3eafe870be445cdeU,
  0xbdd49af33d791204U, 0xbe0bd519bda4e898U, 0xbd9857533e2303e4U, 0x3eec311e3d6598edU,
  0x3e338a823db436eaU, 0xbea05a2d3e88a8eeU, 0x3d80316cbe829165U, 0xbd46ac65bde0cda8U,
  0x3e60388f3e18e5d2U, 0x3e1481f4be84837dU, 0xbdf984233d81ed04U, 0x3dfb9c773b97947dU,
  0x3ecbc7fdbe295e93U, 0xbee5ff0e3e833cb5U, 0xbca13df5bd75f3a7U, 0xbeaaff8abb42ca87U,
  0xbe572b90bbf9578bU, 0xbd82a3d63e0756f8U, 0xbdcc5465be8203eaU, 0x3e65e5723e2592e0U,
  0xbc06c31c3e00a03eU, 0xbf30bf0c3e8951d2U, 0xbe5dd4a0be8cfb35U, 0xbdde2e80bc574f0eU,
  0x3dc43ff13e9aaa1fU, 0x3e35b813be2ae583U, 0xbe8daa1ebe6a952fU, 0xbac261f43e497219U,
  0x3e9b239e3caafcaaU, 0x3e148006be6a55f0U, 0x3db77979bd14f98dU, 0xbf327b0abe83e03bU,
  0xbe2330d0be278230U, 0xbe42ea6f3d01ea21U, 0x3e257a74be28a28eU, 0x3e30d166bd748ac7U,
  0x3dccd308bd17932cU, 0xbe4998f3bd839cd5U, 0xbe905e82bcf9300cU, 0xbdc239783e224aaaU,
  0x3cf4e6b33e9e5592U, 0x3ccd0ca23d866e8bU, 0xbd798dc73e0ed592U, 0x3e603761be91ead1U,
  0x3e9c30b63e0aa9d3U, 0xbebb8b703f42cc35U, 0x3cc59a19bc9f08faU, 0xbe97564abe07636eU,
  0x3d00c12b3d80e2d6U, 0xbf527df8bd002961U, 0x3e653ad6beadfe26U, 0x3d9e2e823dd27d7bU,
  0xbd8db82f3e0e180aU, 0x3e3a5f7d3e406302U, 0x3d3c9e2e3e33c6bdU, 0x3e2512eabed3b4e6U,
  0xbe8753c5be93e9afU, 0x3e9ba8613c959ca2U, 0xbe2fbc2abd817716U, 0xbe721cc1bd3561caU,
  0xbe3adbebbd8e5295U, 0x3e33c98f3ead8297U, 0x3e01d55e3d971b9aU, 0x3c8aa44e3edcd3ddU,
  0xbda5bae43d61f564U, 0xbf078db9be29f6b1U, 0x3e18d818be8bc20fU, 0x3e02fbc43dbbae35U,
  0xbeb53c603c8a9a5fU, 0x3db000943ea3b072U, 0x3e1da0e33e214e8eU, 0x3e0c24a4be8e7891U,
  0xbc570b61be7f6271U, 0x3e0a205d3e7637b8U, 0xbdc4ddf7bd061d61U, 0xbe8534833e634b54U,
  0xbd499e8d3d9caabeU, 0x3e6becb63ed214cbU, 0x3da6ee30bd3b9de9U, 0xbcd78b173e8c5963U,
  0xbde8484d3ce0193cU, 0xbe01f9dcbe81cfb6U, 0x3d9aba623db33b94U, 0x3ed494973d0e4910U,
  0xbddbf2973d736088U, 0x3cd43fb13e5573a6U, 0xbe2295953d1fd498U, 0xbe24f83dbe1fe6ebU,
  0x3bb23522bd181058U, 0x3dbca7783e59244bU, 0xbd25fe1d3debc976U, 0xbe14aead3cfef473U,
  0x3c9eced33db738e1U, 0x3e3038e73e154ddfU, 0xbe039540bd277aa1U, 0xbea2b4f23ee319efU,
  0x3e8124433d8a6e17U, 0xbd83fc98bd742e5eU, 0xbe0c56753c25dd4aU, 0x3e15e9c73e139b90U,
  0x3e30835cbd8775b2U, 0xbf6ebcfa3e977171U, 0xbe2334343daff2b6U, 0x3eae497dbe0b47b0U,
  0x3dc766c5be044ed1U, 0xbc23ed50bdee4c0aU, 0x3db78a063c4887f5U, 0xbe6177993d5c4990U,
  0x3db808c1bd91920cU, 0x3e6a09b03ef0e687U, 0x3d2a1289bd505129U, 0x3dd10e7f3e5b554eU,
  0x3e52d9823e615ce2U, 0xbdbf0512bed89cc0U, 0xbeb42467be310419U, 0x3dde33023ca83943U,
  0xbd91409d3e0deddfU, 0xbf2ec8973eaea6feU, 0xbcbce284bdafbb8eU, 0x3e351d60be7b5ad3U,
  0xbdf2e44bbe113357U, 0xbd333f91be9235e5U, 0x3e800382be1915b6U, 0xbe7e4c2d3e73f734U,
  0xbe552e7b3e2ecc8cU, 0x3ecaf23a3e8bedd3U, 0x3e2ce5c6bd7a0d99U, 0x3dc1a3ee3e442254U,
  0x3e936d58be6b053bU, 0x3e53f731be9c23a9U, 0xbeb48be53ca2dcaaU, 0x3cd9a787be464e81U,
  0xbd82927a3d6ac8a8U, 0xbf6228953eb15b06U, 0xbe719d31be514bb3U, 0xbdfd26013d829a7bU,
  0xbdf359873c1fd84fU, 0x3e1ba923be097990U, 0x3e9c9ec43e603576U, 0xbe1daee73dee1a11U,
  0x3e05cf353d8c923bU, 0x3e85d5de3f39b3f4U, 0x3e9c3510bc905d0cU, 0xbf02e0eebc4400cdU,
  0xbe6c2d023e328388U, 0xbe903cf13e4ff678U, 0x3dafeb663ac13733U, 0x3e5744a53de3388bU,
  0xbd152930bbe46ea0U, 0xbf62e08bbf23e28fU, 0xbf49022ebd31a8f5U, 0x3e9b0bacbd83c1fcU,
  0x3e3f3679bdad2fddU, 0xbe529aa03e239e2dU, 0xbe1cee6ebd6f97c0U, 0x3e44cf443e457016U,
  0x3e0bb78bbe7ad065U, 0xbed24a98bc640db2U, 0xbc0c5a6d3e0ff2a6U, 0xbec3a3ddbd88c20fU,
  0x3e4c79c03e10ce58U, 0xbd9cedba3e9ef61dU, 0x3c6c3b203e98e0baU, 0x3e25c6dabda0c3d4U,
  0x3e0eb319bd989d68U, 0xbf22f745bf2faee2U, 0xbf71a3a13e33b3e2U, 0x3c0260283e902455U,
  0x3e79ab6c3dea82ddU, 0xbdb8e0aa3ee24e18U, 0x3d8957b13db5043aU, 0x3cf4ba303e90b0b8U,
  0x3dc0b80cbe7dfe75U, 0xbe7ab461bcc00116U, 0xbe132fecba856b91U, 0xbe877a9e3dc79b1dU,
  0x3e5aa3123e31f10cU, 0xbdf85c043e116f3cU, 0x3e2e8a743dedbf0bU, 0x3e48c09b3d98a4afU,
  0x3e2215f83def09d4U, 0x3d9ff13cbe9ca1a3U, 0xbd9297db3d985c6aU, 0x3f0d7396bda5b53bU,
  0x3dc4c848bde65b5eU, 0x3deae54cbcbf65baU, 0x3c8fadcabdab09f3U, 0x3e55defa3e2e3d45U,
  0x3e02e33f3e686c57U, 0x3d4068a1be074b72U, 0x3cf3b1aa3e8b63e6U, 0xbe6d3f25be644cf8U,
  0xbd84fe2f3e94cc50U, 0x3dee2d863e818792U, 0xbe05a8673e4cad6aU, 0xbda4bcb93d9dbea3U,
  0xbc93dd493ce8bb45U, 0xbe77ef233f142c76U, 0xbd127c1ebe753763U, 0x3d9758debdd5490aU,
  0x3e2974c33e401710U, 0x3df9bf7bbddb1e7aU, 0xbded5f4abef72f1fU, 0xbe2b9277be0e4ef2U,
  0x3ea2ac2dbe32288eU, 0xbe3b96d3be8587ddU, 0x3eea4ac4be72836dU, 0xbed73767be86595bU,
  0xbc4dce9b3e5f0dcdU, 0x3d9e2e203eb47c32U, 0xbe98eff13ba66f7cU, 0x3e867c30be53b417U,
  0x3ccd9a1bbd3adde4U, 0xbea9e25a3f10c80aU, 0x3d2e07d7be027c18U, 0x3db8ebce3decd4cbU,
  0x3c7f84023e25844fU, 0x3cf4896abe99a62dU, 0x3d125e4fbd946384U, 0xbd30d3303d8d47e8U,
  0x3e3908d1be4eb9baU, 0xbe55c999bcb55393U, 0x3dc124c73d3554fbU, 0xbd84f4a3befaa592U,
  0x3be9490d3de62244U, 0x3e56586a3e25f01aU, 0xbe41a38c3e14452fU, 0x3dcf1aef3d16f2f5U,
  0x3de199ffbdec1fecU, 0x3dd67c5f3f0855ebU, 0xbe221854be0e58b0U, 0xbbbb190c3e3a70e7U,
  0x3e62f4793d7cb6efU, 0xbbd32c5abeb27c22U, 0xbe744828bdb5f512U, 0xbd0389b93c129d93U,
  0x3e615e3cbe1d7a04U, 0xbec03ef23e6012a2U, 0x3ee5be8dbe53e171U, 0xbe11179abe42989bU,
  0xbe63b54d3bffb0b6U, 0xbe99f6f83b95d62fU, 0x3e16d2c5be8a2a3bU, 0x3d576e8f3cdea743U,
  0xbea992e43dea4044U, 0x3ec0d672befc16b6U, 0x3e7c3085be347a3dU, 0x3cbdcef53c3202ffU,
  0x3d9d760e3b819aecU, 0x3e255ebabd6441dcU, 0x3dd1310abf0f8f07U, 0xbe69dee7be119214U,
  0xbe03771e3d1300c2U, 0x3e6623073e1d92d0U, 0x3eca384abea58494U, 0x3f141ed83d49aba7U,
  0x3e4be5c43dce1b3fU, 0xbe1651ad3e2268aeU, 0x3e691773bead523bU, 0xbd6ebf0e3e39ead3U,
  0xbea3da19be12966cU, 0xbf01d7d63ef3e07fU, 0xbf033a23bd0011f1U, 0x3f03befcbe892e9cU,
  0xbe51544cbd286a94U, 0xbdd77e96bed7e7a1U, 0xbe60ba0b3da89ac4U, 0x3e08937ebe051227U,
  0xbd9095143c2717d6U, 0x3f1261c7bdc0d377U, 0x3caec09b3e3eef64U, 0x3f062206bd1724d0U,
  0xbd12959a3dab0ad3U, 0x3ea7cc1d3cd8669bU, 0xbddf3a2b3b731077U, 0xbe4e61f83e5b50a7U,
  0xbe4d5a3b3de52f04U, 0xbe4ff47bbf095169U, 0x3e7170d93ec4bac2U, 0xbe0273783ea7a101U,
  0xbe070c3dbf158aa8U, 0xbe39a5873e3a31f1U, 0x3e8d6af73d9032cfU, 0xbe8791223e0e6d09U,
  0xbe469a393e8ff5c7U, 0xbebe2c613e1cca5aU, 0xbee23c85bec1d655U, 0x3b8b3a123e87d5f4U,
  0x3cd8e6903df68075U, 0xbdfa07593e8f2c7eU, 0xbec5d11fbda18883U, 0x3eb127863d03f6bbU,
  0x3e38d57dbc82bac0U, 0xbf144da0bd1b82e0U, 0xbdd0705d3c0779beU, 0x3d659c873da4037eU,
  0x3d23be4cbd72ab55U, 0x3e2fbadebd8c960dU, 0x3e921d17be9b832eU, 0xbd5dac473dc26824U,
  0x3e2553bdbe077ac7U, 0xbd8dbcae3e1e2f25U, 0x3e3e096f3e447450U, 0xbec3343ebcdf1dd2U,
  0x3d7ac51fbda78521U, 0xbe9a51013e00d8b6U, 0xbeec53f7bea5d04cU, 0x3d2a73d93dc874c4U,
  0xbda0c8823d90f91aU, 0xbee1dc8abd362b54U, 0x3dce4fb9bdb323a6U, 0x3da064df3d1edd47U,
  0x3cb888033e1cbdddU, 0x3d723687bb63416dU, 0x3ea4081ebea9801dU, 0x3d8f8e5f3e0d0202U,
  0xbe1a3337bd6a5c4eU, 0xbe549c3abe2cde82U, 0x3e3966ce3e34f534U, 0xbec9db203d412a57U,
  0x3e37693bbe35386cU, 0xbe6fc43d3eb18458U, 0xbeef26cabe0525c4U, 0x3decaf00bd3bf330U,
  0x3e660ad1bc28eeb0U, 0xbee1c5df3d5c0dd9U, 0x3e91ba96bdc5aab1U, 0xbe0577943ca9cd2eU,
  0x3c8df4803e906cc0U, 0x3e2ef3a63d2cafcdU, 0x3e986837bea36bfcU, 0x3d88f45f3e48e419U,
  0x3c91b36cbe109346U, 0x3d5c50833e7b07d6U, 0x3e7f95933d9b5e63U, 0xbf210c7cbe70284aU,
  0x3e133c6b3e5f0e07U, 0xbe9bd31fbeeebe22U, 0x3e9516033df88663U, 0x3e008878bc7fccb9U,
  0xbe20473f3d98dc70U, 0x3e0761e53b582aaeU, 0xbd5d7a0d3e99e2b4U, 0x3ea2dc25be3e29daU,
  0x3db22303be6273cdU, 0xbc218a553e464efeU, 0x3e00ba54be0d39f9U, 0xbd939e6dbe2f95f4U,
  0xbe38951e3dd4b82aU, 0xbc91be543eaa2bbcU, 0xbdb9f648be17b58eU, 0x3ee6e4f43e9593a9U,
  0x3e6ae845bdd17b89U, 0xbe69f733be7112f0U, 0x3e6c4e8bbe3b46e2U, 0xbe34d0c83d9a1b4bU,
  0xbe704bd7bce218ceU, 0xbec9fc9f3ee197c1U, 0xbeadbe6f3b675ad1U, 0x3ed01637bec15242U,
  0xbe6d0482be5300daU, 0x3d6cd34d3c4b2140U, 0x3cffedcebc6812eeU, 0xbe32008e3e0c8e2dU,
  0xbe6538583e185f05U, 0x3ecafdd43e8d532dU, 0xbdf44ee73c0c02faU, 0x3eb713503c0c39b3U,
  0xbc2374313e3a9853U, 0x3c849aaebee8d4d6U, 0x3df8b0a43e248310U, 0x3d993811bd281d73U,
  0x3da28a573ca3d2c8U, 0xbe0ce2313eaa8edfU, 0xbe37fb173dbcc75bU, 0xbe8d12853acf5ebbU,
  0x3e71d226bcc3fe68U, 0x3da4d3633e49850bU, 0x3e0d76f13e9133afU, 0xbe36cb2c3e3555c4U,
  0x3d7172cd3d11d5f1U, 0x3e1291d13ecf2c67U, 0xbc7f4d17bec5762bU, 0x3e08c00a3e973aa3U,
  0x3e2ff6633b7c4d9bU, 0xbe093b6b3e44d06bU, 0xbe35a4cebe09664fU, 0x3e064bfbbec9e833U,
  0xbe1a59003d45aae3U, 0xbe545e233e49306fU, 0x3e05ad933bc0c049U, 0x3ee944f63dfdadc8U,
  0xbe8100f2bd656508U, 0x3b889150bee7e23aU, 0x3e150448bd9117a6U, 0xbe4007143dcdd397U,
  0xbed492d4bd4f014aU, 0x3e8e5d5ebeb9ff55U, 0xbe4b51bfbd590979U, 0x3ea4a3f23c262ae9U,
  0x3dc1275dbd7b75caU, 0x3cb12da93e8fe633U, 0xbe11023abe2fa30fU, 0x3d2d8be0be4f0281U,
  0x3d79aa5e3d9fafd6U, 0xbea842003e64c742U, 0x3e477a123e171e99U, 0x3f02426d3de8fb3bU,
  0xbe54584b3d2d90ebU, 0xbd120466beef7e35U, 0x3d7d4d4f3b7d1ff8U, 0xbd702be43d8eccceU,
  0x3cdf4f253da661caU, 0x3dccd78dbea36499U, 0xbe7c3f0f39ee78d5U, 0x3ea6327d3e7d0cf6U,
  0x3ed45187bc0afc40U, 0xbd0c52743e6cc55cU, 0xbe98c883be331ec1U, 0xbd9fd2c5be0abef4U,
  0xbd603c11bdd2068aU, 0xbc88e485bd3b6308U, 0x3df0a4113e7d3c7dU, 0x3ee945013e4040c1U,
  0xbe3375ebbd788d37U, 0xbe8fc93dbee0ef65U, 0xbd78b3903e199d89U, 0xbe41b4ec3e1b47e6U,
  0x3d57cb1cbd78d4cbU, 0xbe7c32b53eeead44U, 0xbe9cf00fbf015dc6U, 0x3f0d55a73e8726d5U,
  0xbe61c49e3e09ec65U, 0xbdd52973be9f51cdU, 0x3e052d8bbe2be24eU, 0x3e11ea303dd89832U,
  0xbe69f0883df7e2ebU, 0xbeb433da3dc2cccaU, 0x3d9d000abd1dc90eU, 0xbd0790d33dfe25f4U,
  0xbcbb86313cffeb9cU, 0xbdac97093d4e8eb9U, 0x3d9194923e0271a7U, 0xbdbfc66dbc00c89dU,
  0xbd3744013e595377U, 0xbdcf20e23e8557a9U, 0x3d0aa9ce3dad357dU, 0x3e28e4ad3e3abd83U,
  0xbe7594ac3e348a6eU, 0x3dc0058dbdf9910cU, 0x3e3c9b31be1eb479U, 0xbd121d973dc5bc3bU,
  0xbe46dbe43dbf62beU, 0xbe9f59c63d2555afU, 0x3e64e07c3d91e11eU, 0x3e01e2b43c24978fU,
  0xbdb387ff3d351e37U, 0xbd01ff283d89ac20U, 0x3e48b50b3e519a37U, 0x3e096b74be163756U,
  0x3d4a5eda3cc5aea6U, 0x3d9795d93d746e2bU, 0xbdc83005ba94a56eU, 0xbb4bce733e867b3eU,
  0xbe9d78f3bd02a471U, 0x3dd0ec4abd9f16f4U, 0x3e3afbd1b9950db6U, 0xbe0dc3933da009b6U,
  0xbdce9df6be0583b6U, 0x3de6e24d3a7cc25dU, 0x3ea089923de8f1f6U, 0xbe1b0f96bd132488U,
  0x3d94acef3e2eb032U, 0x3e6db04fbe3820e9U, 0xbd966ce43df7a8e8U, 0xbd923981bd0ddd5dU,
  0x3da43c543a93e762U, 0xbe20a80dbdaede0dU, 0x3d3f99203e2581aaU, 0xbee11ff23e91aa8aU,
  0xbde0d5f23c3bae5eU, 0xbe025542be60a55eU, 0x3da250b6bea68de5U, 0xbe8a5101bdd5fbabU,
  0xbecf9a45be0b8c14U, 0x3dca73233e30b865U, 0xbeb3b6333de0b234U, 0x3ef4aadebe99bb88U,
  0xbe858d283d7faf2aU, 0xbe49acdfbe9c4ed0U, 0xbed5008d3e37fe2cU, 0xbd81f8c5be9ea847U,
  0xbf061d5d3d657daaU, 0x3ee944b73d95d876U, 0x3e5edc54bd16f4e5U, 0x3e0e8139beb70b56U,
  0x3e53669e3e091b17U, 0xbd2a78523e3392e9U, 0x3e9a2a0b3dee3c7cU, 0xbdb6487b3da41f8dU,
  0xbe243bf6bd9a5985U, 0x3f172cea3dc9e8a0U, 0x3e3755803eb95892U, 0x3e96be263db157b6U,
  0x3dc5561ebe07e8afU, 0xbc020bdbbec27480U, 0xbdde995c3d71d3baU, 0xbdabd8d3bd4b9454U,
  0xbe0668a43e5be849U, 0x3e1971fa3e8a1fe9U, 0x3d8897c5be0cd130U, 0x3e9d39773e6fc97eU,
  0xbd893c67bcd4eceaU, 0x3c7b34983e24c99cU, 0x3e21dce5bda8dda8U, 0xbc65923c3d51a740U,
  0xbe4f33403dc29436U, 0x3f19eeba3f194a0eU, 0x3d48a2513e07ea08U, 0xbde7d7b9be457f7bU,
  0x3cb535d6be14c004U, 0xbe0a26543e5410b8U, 0xbe118cc93dd722dbU, 0xbe35d7e23dd423f0U,
  0xbc8db2b63d644090U, 0xbb9733ef3e05cfe7U, 0xbd80abf9bd4810eaU, 0x3d826b9f3e985f7fU,
  0xbb592543bbe2dea5U, 0xbe0ec7963e7aff27U, 0x3e627ae6be2a2a76U, 0x3d7d4bc03e920904U,
  0xbdce21ba3c50d4abU, 0x3ec1866ebe948fa7U, 0x3d30f8443d5b483bU, 0xbe54d5aa3e0d9daeU,
  0xbda0c6a83e1577f3U, 0xbc8b6a423eee6b7fU, 0x3e14e5393e6b882fU, 0x3cb8c5423e443759U,
  0x3d11bbae3e45a76dU, 0x3e96da613e93f403U, 0x3ee244573ebae4e2U, 0xbd4c5cd73de78247U,
  0xbde6e00cbd5c0a04U, 0xbda545a83e4ebc84U, 0x3e494271bd8d4e6aU, 0x3d051ee03dd6fa75U,
  0xbe5dd537bdd92696U, 0xbd0cbe33bf0c43aeU, 0x3d9f1eda3e630714U, 0x3e2746efbe125c8aU,
  0x3e015736bf4309d4U, 0x3b3c20d43ed04ba9U, 0x3e88fa0b3dcb73edU, 0xbeb0aa63be2b2672U,
  0x3dcf2f043e45bcb0U, 0x3dd6a6853e096c24U, 0xbe34c664be8dd21bU, 0xbf1af0903c80cc4cU,
  0xbc19f4d4bf0e8881U, 0xbdd3bd37bf2988f6U, 0xbeb4eb81becac17eU, 0xbeda5cddbedb3120U,
  0xbee34ead3df014f4U, 0x3cba8a46bf38cbfcU, 0xbeb09b14bec4a903U, 0xbe6195e8be040ca7U,
  0xbf13dd80bcf8e531U, 0xbf20ba88bee8ba14U, 0xbf1ac636be60d65bU, 0xbea93f6fbf40a5abU,
  0xbf338a3cbef77ddbU, 0xbf13ea6bbdd900dcU, 0xbdb69d453de795f0U, 0xbed1ac3b3c2ea9b3U,
  0x3e1b48bbbe55635dU, 0x3dd388be3e06d767U, 0x3b6677523ca62c4cU, 0xbd472c95bd973094U,
  0x3e7ee3efbdf78d04U, 0x3ef6027cbe5fa1ccU, 0x3d3ca1e9bdbe41e9U, 0x3da76cf23e0531baU,
  0x3db5c89c3d9c5b9cU, 0x3c48bc393c6d4d99U, 0x3ba236373e029976U, 0xbc57396abcf4f46cU,
  0x3d792126bd8dd7feU, 0xbdfbd270bebe0daeU, 0xbdccce5bbe10e1edU, 0x3dbc8327be4cb4d7U,
  0x3e9c3cedbeb0b358U, 0xbcd336b33e9be129U, 0xbde155a63d83345dU, 0xbe303e61bebe5410U,
  0x3e6f62efbe0b1fefU, 0x3e23afb4beab7f96U, 0x3ba440dabe4e06b3U, 0x3d513c863dea922dU,
  0xbe33ef663e291111U, 0xbe897fd6bdf97bdcU, 0x3d5181d1bd4e4253U, 0x3dd8d8773e0e0e10U,
  0xbe2e1259be7aad8aU, 0x3e2b7db6bd8b35b0U, 0xbdf12a323d557223U, 0xbd4193d9be7a8ac5U,
  0x3e92a861be097412U, 0xbd5c39763e11978aU, 0x3dc24365bdaf7199U, 0xbea78df5be99d2afU,
  0x3c2c45e33d2f0adcU, 0x3e854f13be8e94cbU, 0x3e82002bbcdfae0cU, 0x3e3d35f0bd9a0c12U,
  0xbe5b1ae8bdd9abc2U, 0xbebc6ec73d6193a8U, 0xbbb3f2c23e8cd890U, 0x3d4256c23e355899U,
  0xbda9b2b4be9ef10fU, 0x3d585c41be815279U, 0xbd1a9f97bdf27df2U, 0x3e90bd4abe085494U,
  0xbd58a83d3d12d240U, 0xbf22494abe0e74c9U, 0x3e10862abdb0625bU, 0x3e10f581be41377eU,
  0x3e329c943d706f26U, 0xbe8435f23def424aU, 0x3e19d05abdd7822bU, 0x3d8632f1be8f1f2aU,
  0xbe03e3783d8aaedaU, 0x3e3571cf3f0da2fcU, 0xbe14ef083edca199U, 0x3e0d0d7b3c469798U,
  0x3e480fd2bebaa345U, 0x3d7456df3e8793e9U, 0xbd885a943da85ad9U, 0xbe10cfa73e3cb05aU,
  0xbe0d21673e6a6928U, 0xbe83a63cbe883a6eU, 0x3d54d1e93a2f64e3U, 0x3d91f3523d5ab8f4U,
  0x3dde2168bd3839cbU, 0xbd770db03d54baffU, 0x3d2352fabcfb00b0U, 0x3da79e26bc94eafdU,
  0xbd976d42bbf3f619U, 0x3bffe3e03e9faf0dU, 0xbe6a7c433e298cebU, 0x3e2e2d6a3d915136U,
  0x3e10f4e0be61c630U, 0xbdfc47703e1ef513U, 0xbe20f56a3ddf86b0U, 0xbc7c90b23e96fccdU,
  0x3d9c0f813db774a2U, 0xbe8a41bfbd1f2089U, 0x3e47cee13e0fe3b3U, 0x3e73eb6f3dfcde20U,
  0x3e28f757bcce964cU, 0x3c1789bbbee150ddU, 0x3e4fd78d3d981661U, 0x3ddc520cbd073c03U,
  0xbcdc4e83bd104f54U, 0xbd03ac6f3d96b532U, 0x3e3bfeafbe429ca8U, 0x3dcddf17be8fe4a1U,
  0xbe9e31d3bc8b240aU, 0xbea1f5f93ca2b3baU, 0xbe0018db3e02b5bdU, 0x3e42a1f53e81e754U,
  0xbb27ae0abd4f5c39U, 0xbe09cbfe3ea2e321U, 0x3c45d644be76009eU, 0x3e01fc493c9b8a2fU,
  0xbe4bc990bbebd117U, 0x3dc7a74cbe26f3d5U, 0x3e3a34a1bd99fdf4U, 0x3d8df0553d9845efU,
  0x3dcedfa03d239840U, 0x3e25ea093e193776U, 0x3dff0681bd818f7cU, 0xbe5296013e480fa3U,
  0xbcfbb8ccbd8c4870U, 0xbdbeb0e43d6eac84U, 0x3e8722143e1f4947U, 0xbde6a1a23e8fc88dU,
  0x3dcfed003ddfb0c3U, 0xbe9992513e19d147U, 0x3e37fd6abe59f330U, 0x3e15cf7b3c847cc7U,
  0xbe2b3ca4bdaada6eU, 0xbe33a67d3d5b428aU, 0xbe7ac4253ddf9899U, 0x3e684c913e939aadU,
  0xbd9d6d273d22bc7bU, 0x3e154bd03e7cd018U, 0x3b4abfbebd0659e7U, 0xbe126bce3d9f4b02U,
  0x3c89d9e7bcd8d9ecU, 0xbdf4b9ff3eabba16U, 0x3d9a9b173cf11f4eU, 0x3ccaf7e23e6cbe5bU,
  0x3d9755583d56211aU, 0xbcec6e8d3ec2a191U, 0xbdf9a0b8be4d2d46U, 0xbdc38bbdbc1ea5a3U,
  0x3ca011ab3ab6bd80U, 0x3ea52d60be170679U, 0x3ebb15e03e30a0b5U, 0xbc8b9fbb3de7c4e7U,
  0xbe6da8443ddc11a9U, 0xbd4d19ad3dfa1d0aU, 0x3d42a2ebbddb3ecdU, 0xbd81b20cbc08059bU,
  0xbceb9c47bcff1248U, 0xbecdafd13ddbb06aU, 0x3e2ac12d3e87cb6bU, 0xbf54cf5e3d9aa1d7U,
  0xbe7a8e763de3e8ccU, 0xbdb8005e3e57efb0U, 0x3e9519a33cca5f8fU, 0xbd224c72bcfaa343U,
  0xbe65c80fbdb4c494U, 0xbea1e656be1f1172U, 0xbebcf6293e99b44fU, 0x3e372d22bd81e5fcU,
  0x3e09288fbe35b774U, 0x3da86bd23e4f629bU, 0xbd6387083e05b5caU, 0x3d19f0a3be0f0bdbU,
  0xbe0df88abdcfb6c8U, 0xbdd0c5943dcb2d1eU, 0xbe74c7573b571cb2U, 0xbeef2da93dd7c38aU,
